100. 50. 12.5 26 13 51
   1   1   1 0.000000e+00 0.000000e+00 0.000000e+00 0.000000e+00 0.000000e+00 0.000000e+00 0.000000e+00 0.000000e+00 0.000000e+00
   2   1   1 0.000000e+00 0.000000e+00 0.000000e+00 0.000000e+00 0.000000e+00 0.000000e+00 0.000000e+00 0.000000e+00 0.000000e+00
   3   1   1 0.000000e+00 0.000000e+00 0.000000e+00 0.000000e+00 0.000000e+00 0.000000e+00 0.000000e+00 0.000000e+00 0.000000e+00
   4   1   1 0.000000e+00 0.000000e+00 0.000000e+00 0.000000e+00 0.000000e+00 0.000000e+00 0.000000e+00 0.000000e+00 0.000000e+00
   5   1   1 0.000000e+00 0.000000e+00 0.000000e+00 0.000000e+00 0.000000e+00 0.000000e+00 0.000000e+00 0.000000e+00 0.000000e+00
   6   1   1 0.000000e+00 0.000000e+00 0.000000e+00 0.000000e+00 0.000000e+00 0.000000e+00 0.000000e+00 0.000000e+00 0.000000e+00
   7   1   1 0.000000e+00 0.000000e+00 0.000000e+00 0.000000e+00 0.000000e+00 0.000000e+00 0.000000e+00 0.000000e+00 0.000000e+00
   8   1   1 0.000000e+00 0.000000e+00 0.000000e+00 0.000000e+00 0.000000e+00 0.000000e+00 0.000000e+00 0.000000e+00 0.000000e+00
   9   1   1 0.000000e+00 0.000000e+00 0.000000e+00 0.000000e+00 0.000000e+00 0.000000e+00 0.000000e+00 0.000000e+00 0.000000e+00
  10   1   1 0.000000e+00 0.000000e+00 0.000000e+00 0.000000e+00 0.000000e+00 0.000000e+00 0.000000e+00 0.000000e+00 0.000000e+00
  11   1   1 0.000000e+00 0.000000e+00 0.000000e+00 0.000000e+00 0.000000e+00 0.000000e+00 0.000000e+00 0.000000e+00 0.000000e+00
  12   1   1 0.000000e+00 0.000000e+00 0.000000e+00 0.000000e+00 0.000000e+00 0.000000e+00 0.000000e+00 0.000000e+00 0.000000e+00
  13   1   1 0.000000e+00 0.000000e+00 0.000000e+00 0.000000e+00 0.000000e+00 0.000000e+00 0.000000e+00 0.000000e+00 0.000000e+00
  14   1   1 0.000000e+00 0.000000e+00 0.000000e+00 0.000000e+00 0.000000e+00 0.000000e+00 0.000000e+00 0.000000e+00 0.000000e+00
  15   1   1 0.000000e+00 0.000000e+00 0.000000e+00 0.000000e+00 0.000000e+00 0.000000e+00 0.000000e+00 0.000000e+00 0.000000e+00
  16   1   1 0.000000e+00 0.000000e+00 0.000000e+00 0.000000e+00 0.000000e+00 0.000000e+00 0.000000e+00 0.000000e+00 0.000000e+00
  17   1   1 0.000000e+00 0.000000e+00 0.000000e+00 0.000000e+00 0.000000e+00 0.000000e+00 0.000000e+00 0.000000e+00 0.000000e+00
  18   1   1 0.000000e+00 0.000000e+00 0.000000e+00 0.000000e+00 0.000000e+00 0.000000e+00 0.000000e+00 0.000000e+00 0.000000e+00
  19   1   1 0.000000e+00 0.000000e+00 0.000000e+00 0.000000e+00 0.000000e+00 0.000000e+00 0.000000e+00 0.000000e+00 0.000000e+00
  20   1   1 0.000000e+00 0.000000e+00 0.000000e+00 0.000000e+00 0.000000e+00 0.000000e+00 0.000000e+00 0.000000e+00 0.000000e+00
  21   1   1 0.000000e+00 0.000000e+00 0.000000e+00 0.000000e+00 0.000000e+00 0.000000e+00 0.000000e+00 0.000000e+00 0.000000e+00
  22   1   1 0.000000e+00 0.000000e+00 0.000000e+00 0.000000e+00 0.000000e+00 0.000000e+00 0.000000e+00 0.000000e+00 0.000000e+00
  23   1   1 0.000000e+00 0.000000e+00 0.000000e+00 0.000000e+00 0.000000e+00 0.000000e+00 0.000000e+00 0.000000e+00 0.000000e+00
  24   1   1 0.000000e+00 0.000000e+00 0.000000e+00 0.000000e+00 0.000000e+00 0.000000e+00 0.000000e+00 0.000000e+00 0.000000e+00
  25   1   1 0.000000e+00 0.000000e+00 0.000000e+00 0.000000e+00 0.000000e+00 0.000000e+00 0.000000e+00 0.000000e+00 0.000000e+00
  26   1   1 0.000000e+00 0.000000e+00 0.000000e+00 0.000000e+00 0.000000e+00 0.000000e+00 0.000000e+00 0.000000e+00 0.000000e+00
   1   2   1 0.000000e+00 0.000000e+00 0.000000e+00 0.000000e+00 0.000000e+00 0.000000e+00 0.000000e+00 0.000000e+00 0.000000e+00
   2   2   1 0.000000e+00 0.000000e+00 0.000000e+00 0.000000e+00 0.000000e+00 0.000000e+00 0.000000e+00 0.000000e+00 0.000000e+00
   3   2   1 0.000000e+00 0.000000e+00 0.000000e+00 0.000000e+00 0.000000e+00 0.000000e+00 0.000000e+00 0.000000e+00 0.000000e+00
   4   2   1 0.000000e+00 0.000000e+00 0.000000e+00 0.000000e+00 0.000000e+00 0.000000e+00 0.000000e+00 0.000000e+00 0.000000e+00
   5   2   1 0.000000e+00 0.000000e+00 0.000000e+00 0.000000e+00 0.000000e+00 0.000000e+00 0.000000e+00 0.000000e+00 0.000000e+00
   6   2   1 0.000000e+00 0.000000e+00 0.000000e+00 0.000000e+00 0.000000e+00 0.000000e+00 0.000000e+00 0.000000e+00 0.000000e+00
   7   2   1 0.000000e+00 0.000000e+00 0.000000e+00 0.000000e+00 0.000000e+00 0.000000e+00 0.000000e+00 0.000000e+00 0.000000e+00
   8   2   1 0.000000e+00 0.000000e+00 0.000000e+00 0.000000e+00 0.000000e+00 0.000000e+00 0.000000e+00 0.000000e+00 0.000000e+00
   9   2   1 0.000000e+00 0.000000e+00 0.000000e+00 0.000000e+00 0.000000e+00 0.000000e+00 0.000000e+00 0.000000e+00 0.000000e+00
  10   2   1 0.000000e+00 0.000000e+00 0.000000e+00 0.000000e+00 0.000000e+00 0.000000e+00 0.000000e+00 0.000000e+00 0.000000e+00
  11   2   1 0.000000e+00 0.000000e+00 0.000000e+00 0.000000e+00 0.000000e+00 0.000000e+00 0.000000e+00 0.000000e+00 0.000000e+00
  12   2   1 0.000000e+00 0.000000e+00 0.000000e+00 0.000000e+00 0.000000e+00 0.000000e+00 0.000000e+00 0.000000e+00 0.000000e+00
  13   2   1 0.000000e+00 0.000000e+00 0.000000e+00 0.000000e+00 0.000000e+00 0.000000e+00 0.000000e+00 0.000000e+00 0.000000e+00
  14   2   1 0.000000e+00 0.000000e+00 0.000000e+00 0.000000e+00 0.000000e+00 0.000000e+00 0.000000e+00 0.000000e+00 0.000000e+00
  15   2   1 0.000000e+00 0.000000e+00 0.000000e+00 0.000000e+00 0.000000e+00 0.000000e+00 0.000000e+00 0.000000e+00 0.000000e+00
  16   2   1 0.000000e+00 0.000000e+00 0.000000e+00 0.000000e+00 0.000000e+00 0.000000e+00 0.000000e+00 0.000000e+00 0.000000e+00
  17   2   1 0.000000e+00 0.000000e+00 0.000000e+00 0.000000e+00 0.000000e+00 0.000000e+00 0.000000e+00 0.000000e+00 0.000000e+00
  18   2   1 0.000000e+00 0.000000e+00 0.000000e+00 0.000000e+00 0.000000e+00 0.000000e+00 0.000000e+00 0.000000e+00 0.000000e+00
  19   2   1 0.000000e+00 0.000000e+00 0.000000e+00 0.000000e+00 0.000000e+00 0.000000e+00 0.000000e+00 0.000000e+00 0.000000e+00
  20   2   1 0.000000e+00 0.000000e+00 0.000000e+00 0.000000e+00 0.000000e+00 0.000000e+00 0.000000e+00 0.000000e+00 0.000000e+00
  21   2   1 0.000000e+00 0.000000e+00 0.000000e+00 0.000000e+00 0.000000e+00 0.000000e+00 0.000000e+00 0.000000e+00 0.000000e+00
  22   2   1 0.000000e+00 0.000000e+00 0.000000e+00 0.000000e+00 0.000000e+00 0.000000e+00 0.000000e+00 0.000000e+00 0.000000e+00
  23   2   1 0.000000e+00 0.000000e+00 0.000000e+00 0.000000e+00 0.000000e+00 0.000000e+00 0.000000e+00 0.000000e+00 0.000000e+00
  24   2   1 0.000000e+00 0.000000e+00 0.000000e+00 0.000000e+00 0.000000e+00 0.000000e+00 0.000000e+00 0.000000e+00 0.000000e+00
  25   2   1 0.000000e+00 0.000000e+00 0.000000e+00 0.000000e+00 0.000000e+00 0.000000e+00 0.000000e+00 0.000000e+00 0.000000e+00
  26   2   1 0.000000e+00 0.000000e+00 0.000000e+00 0.000000e+00 0.000000e+00 0.000000e+00 0.000000e+00 0.000000e+00 0.000000e+00
   1   3   1 0.000000e+00 0.000000e+00 0.000000e+00 0.000000e+00 0.000000e+00 0.000000e+00 0.000000e+00 0.000000e+00 0.000000e+00
   2   3   1 0.000000e+00 0.000000e+00 0.000000e+00 0.000000e+00 0.000000e+00 0.000000e+00 0.000000e+00 0.000000e+00 0.000000e+00
   3   3   1 0.000000e+00 0.000000e+00 0.000000e+00 0.000000e+00 0.000000e+00 0.000000e+00 0.000000e+00 0.000000e+00 0.000000e+00
   4   3   1 0.000000e+00 0.000000e+00 0.000000e+00 0.000000e+00 0.000000e+00 0.000000e+00 0.000000e+00 0.000000e+00 0.000000e+00
   5   3   1 0.000000e+00 0.000000e+00 0.000000e+00 0.000000e+00 0.000000e+00 0.000000e+00 0.000000e+00 0.000000e+00 0.000000e+00
   6   3   1 0.000000e+00 0.000000e+00 0.000000e+00 0.000000e+00 0.000000e+00 0.000000e+00 0.000000e+00 0.000000e+00 0.000000e+00
   7   3   1 0.000000e+00 0.000000e+00 0.000000e+00 0.000000e+00 0.000000e+00 0.000000e+00 0.000000e+00 0.000000e+00 0.000000e+00
   8   3   1 0.000000e+00 0.000000e+00 0.000000e+00 0.000000e+00 0.000000e+00 0.000000e+00 0.000000e+00 0.000000e+00 0.000000e+00
   9   3   1 0.000000e+00 0.000000e+00 0.000000e+00 0.000000e+00 0.000000e+00 0.000000e+00 0.000000e+00 0.000000e+00 0.000000e+00
  10   3   1 0.000000e+00 0.000000e+00 0.000000e+00 0.000000e+00 0.000000e+00 0.000000e+00 0.000000e+00 0.000000e+00 0.000000e+00
  11   3   1 0.000000e+00 0.000000e+00 0.000000e+00 0.000000e+00 0.000000e+00 0.000000e+00 0.000000e+00 0.000000e+00 0.000000e+00
  12   3   1 0.000000e+00 0.000000e+00 0.000000e+00 0.000000e+00 0.000000e+00 0.000000e+00 0.000000e+00 0.000000e+00 0.000000e+00
  13   3   1 0.000000e+00 0.000000e+00 0.000000e+00 0.000000e+00 0.000000e+00 0.000000e+00 0.000000e+00 0.000000e+00 0.000000e+00
  14   3   1 0.000000e+00 0.000000e+00 0.000000e+00 0.000000e+00 0.000000e+00 0.000000e+00 0.000000e+00 0.000000e+00 0.000000e+00
  15   3   1 0.000000e+00 0.000000e+00 0.000000e+00 0.000000e+00 0.000000e+00 0.000000e+00 0.000000e+00 0.000000e+00 0.000000e+00
  16   3   1 0.000000e+00 0.000000e+00 0.000000e+00 0.000000e+00 0.000000e+00 0.000000e+00 0.000000e+00 0.000000e+00 0.000000e+00
  17   3   1 0.000000e+00 0.000000e+00 0.000000e+00 0.000000e+00 0.000000e+00 0.000000e+00 0.000000e+00 0.000000e+00 0.000000e+00
  18   3   1 0.000000e+00 0.000000e+00 0.000000e+00 0.000000e+00 0.000000e+00 0.000000e+00 0.000000e+00 0.000000e+00 0.000000e+00
  19   3   1 0.000000e+00 0.000000e+00 0.000000e+00 0.000000e+00 0.000000e+00 0.000000e+00 0.000000e+00 0.000000e+00 0.000000e+00
  20   3   1 0.000000e+00 0.000000e+00 0.000000e+00 0.000000e+00 0.000000e+00 0.000000e+00 0.000000e+00 0.000000e+00 0.000000e+00
  21   3   1 0.000000e+00 0.000000e+00 0.000000e+00 0.000000e+00 0.000000e+00 0.000000e+00 0.000000e+00 0.000000e+00 0.000000e+00
  22   3   1 0.000000e+00 0.000000e+00 0.000000e+00 0.000000e+00 0.000000e+00 0.000000e+00 0.000000e+00 0.000000e+00 0.000000e+00
  23   3   1 0.000000e+00 0.000000e+00 0.000000e+00 0.000000e+00 0.000000e+00 0.000000e+00 0.000000e+00 0.000000e+00 0.000000e+00
  24   3   1 0.000000e+00 0.000000e+00 0.000000e+00 0.000000e+00 0.000000e+00 0.000000e+00 0.000000e+00 0.000000e+00 0.000000e+00
  25   3   1 0.000000e+00 0.000000e+00 0.000000e+00 0.000000e+00 0.000000e+00 0.000000e+00 0.000000e+00 0.000000e+00 0.000000e+00
  26   3   1 0.000000e+00 0.000000e+00 0.000000e+00 0.000000e+00 0.000000e+00 0.000000e+00 0.000000e+00 0.000000e+00 0.000000e+00
   1   4   1 0.000000e+00 0.000000e+00 0.000000e+00 0.000000e+00 0.000000e+00 0.000000e+00 0.000000e+00 0.000000e+00 0.000000e+00
   2   4   1 0.000000e+00 0.000000e+00 0.000000e+00 0.000000e+00 0.000000e+00 0.000000e+00 0.000000e+00 0.000000e+00 0.000000e+00
   3   4   1 0.000000e+00 0.000000e+00 0.000000e+00 0.000000e+00 0.000000e+00 0.000000e+00 0.000000e+00 0.000000e+00 0.000000e+00
   4   4   1 0.000000e+00 0.000000e+00 0.000000e+00 0.000000e+00 0.000000e+00 0.000000e+00 0.000000e+00 0.000000e+00 0.000000e+00
   5   4   1 0.000000e+00 0.000000e+00 0.000000e+00 0.000000e+00 0.000000e+00 0.000000e+00 0.000000e+00 0.000000e+00 0.000000e+00
   6   4   1 0.000000e+00 0.000000e+00 0.000000e+00 0.000000e+00 0.000000e+00 0.000000e+00 0.000000e+00 0.000000e+00 0.000000e+00
   7   4   1 0.000000e+00 0.000000e+00 0.000000e+00 0.000000e+00 0.000000e+00 0.000000e+00 0.000000e+00 0.000000e+00 0.000000e+00
   8   4   1 0.000000e+00 0.000000e+00 0.000000e+00 0.000000e+00 0.000000e+00 0.000000e+00 0.000000e+00 0.000000e+00 0.000000e+00
   9   4   1 0.000000e+00 0.000000e+00 0.000000e+00 0.000000e+00 0.000000e+00 0.000000e+00 0.000000e+00 0.000000e+00 0.000000e+00
  10   4   1 0.000000e+00 0.000000e+00 0.000000e+00 0.000000e+00 0.000000e+00 0.000000e+00 0.000000e+00 0.000000e+00 0.000000e+00
  11   4   1 0.000000e+00 0.000000e+00 0.000000e+00 0.000000e+00 0.000000e+00 0.000000e+00 0.000000e+00 0.000000e+00 0.000000e+00
  12   4   1 0.000000e+00 0.000000e+00 0.000000e+00 0.000000e+00 0.000000e+00 0.000000e+00 0.000000e+00 0.000000e+00 0.000000e+00
  13   4   1 0.000000e+00 0.000000e+00 0.000000e+00 0.000000e+00 0.000000e+00 0.000000e+00 0.000000e+00 0.000000e+00 0.000000e+00
  14   4   1 0.000000e+00 0.000000e+00 0.000000e+00 0.000000e+00 0.000000e+00 0.000000e+00 0.000000e+00 0.000000e+00 0.000000e+00
  15   4   1 0.000000e+00 0.000000e+00 0.000000e+00 0.000000e+00 0.000000e+00 0.000000e+00 0.000000e+00 0.000000e+00 0.000000e+00
  16   4   1 0.000000e+00 0.000000e+00 0.000000e+00 0.000000e+00 0.000000e+00 0.000000e+00 0.000000e+00 0.000000e+00 0.000000e+00
  17   4   1 0.000000e+00 0.000000e+00 0.000000e+00 0.000000e+00 0.000000e+00 0.000000e+00 0.000000e+00 0.000000e+00 0.000000e+00
  18   4   1 0.000000e+00 0.000000e+00 0.000000e+00 0.000000e+00 0.000000e+00 0.000000e+00 0.000000e+00 0.000000e+00 0.000000e+00
  19   4   1 0.000000e+00 0.000000e+00 0.000000e+00 0.000000e+00 0.000000e+00 0.000000e+00 0.000000e+00 0.000000e+00 0.000000e+00
  20   4   1 0.000000e+00 0.000000e+00 0.000000e+00 0.000000e+00 0.000000e+00 0.000000e+00 0.000000e+00 0.000000e+00 0.000000e+00
  21   4   1 0.000000e+00 0.000000e+00 0.000000e+00 0.000000e+00 0.000000e+00 0.000000e+00 0.000000e+00 0.000000e+00 0.000000e+00
  22   4   1 0.000000e+00 0.000000e+00 0.000000e+00 0.000000e+00 0.000000e+00 0.000000e+00 0.000000e+00 0.000000e+00 0.000000e+00
  23   4   1 0.000000e+00 0.000000e+00 0.000000e+00 0.000000e+00 0.000000e+00 0.000000e+00 0.000000e+00 0.000000e+00 0.000000e+00
  24   4   1 0.000000e+00 0.000000e+00 0.000000e+00 0.000000e+00 0.000000e+00 0.000000e+00 0.000000e+00 0.000000e+00 0.000000e+00
  25   4   1 0.000000e+00 0.000000e+00 0.000000e+00 0.000000e+00 0.000000e+00 0.000000e+00 0.000000e+00 0.000000e+00 0.000000e+00
  26   4   1 0.000000e+00 0.000000e+00 0.000000e+00 0.000000e+00 0.000000e+00 0.000000e+00 0.000000e+00 0.000000e+00 0.000000e+00
   1   5   1 0.000000e+00 0.000000e+00 0.000000e+00 0.000000e+00 0.000000e+00 0.000000e+00 0.000000e+00 0.000000e+00 0.000000e+00
   2   5   1 0.000000e+00 0.000000e+00 0.000000e+00 0.000000e+00 0.000000e+00 0.000000e+00 0.000000e+00 0.000000e+00 0.000000e+00
   3   5   1 0.000000e+00 0.000000e+00 0.000000e+00 0.000000e+00 0.000000e+00 0.000000e+00 0.000000e+00 0.000000e+00 0.000000e+00
   4   5   1 0.000000e+00 0.000000e+00 0.000000e+00 0.000000e+00 0.000000e+00 0.000000e+00 0.000000e+00 0.000000e+00 0.000000e+00
   5   5   1 0.000000e+00 0.000000e+00 0.000000e+00 0.000000e+00 0.000000e+00 0.000000e+00 0.000000e+00 0.000000e+00 0.000000e+00
   6   5   1 0.000000e+00 0.000000e+00 0.000000e+00 0.000000e+00 0.000000e+00 0.000000e+00 0.000000e+00 0.000000e+00 0.000000e+00
   7   5   1 0.000000e+00 0.000000e+00 0.000000e+00 0.000000e+00 0.000000e+00 0.000000e+00 0.000000e+00 0.000000e+00 0.000000e+00
   8   5   1 0.000000e+00 0.000000e+00 0.000000e+00 0.000000e+00 0.000000e+00 0.000000e+00 0.000000e+00 0.000000e+00 0.000000e+00
   9   5   1 0.000000e+00 0.000000e+00 0.000000e+00 0.000000e+00 0.000000e+00 0.000000e+00 0.000000e+00 0.000000e+00 0.000000e+00
  10   5   1 0.000000e+00 0.000000e+00 0.000000e+00 0.000000e+00 0.000000e+00 0.000000e+00 0.000000e+00 0.000000e+00 0.000000e+00
  11   5   1 0.000000e+00 0.000000e+00 0.000000e+00 0.000000e+00 0.000000e+00 0.000000e+00 0.000000e+00 0.000000e+00 0.000000e+00
  12   5   1 0.000000e+00 0.000000e+00 0.000000e+00 0.000000e+00 0.000000e+00 0.000000e+00 0.000000e+00 0.000000e+00 0.000000e+00
  13   5   1 0.000000e+00 0.000000e+00 0.000000e+00 0.000000e+00 0.000000e+00 0.000000e+00 0.000000e+00 0.000000e+00 0.000000e+00
  14   5   1 0.000000e+00 0.000000e+00 0.000000e+00 0.000000e+00 0.000000e+00 0.000000e+00 0.000000e+00 0.000000e+00 0.000000e+00
  15   5   1 0.000000e+00 0.000000e+00 0.000000e+00 0.000000e+00 0.000000e+00 0.000000e+00 0.000000e+00 0.000000e+00 0.000000e+00
  16   5   1 0.000000e+00 0.000000e+00 0.000000e+00 0.000000e+00 0.000000e+00 0.000000e+00 0.000000e+00 0.000000e+00 0.000000e+00
  17   5   1 0.000000e+00 0.000000e+00 0.000000e+00 0.000000e+00 0.000000e+00 0.000000e+00 0.000000e+00 0.000000e+00 0.000000e+00
  18   5   1 0.000000e+00 0.000000e+00 0.000000e+00 0.000000e+00 0.000000e+00 0.000000e+00 0.000000e+00 0.000000e+00 0.000000e+00
  19   5   1 0.000000e+00 0.000000e+00 0.000000e+00 0.000000e+00 0.000000e+00 0.000000e+00 0.000000e+00 0.000000e+00 0.000000e+00
  20   5   1 0.000000e+00 0.000000e+00 0.000000e+00 0.000000e+00 0.000000e+00 0.000000e+00 0.000000e+00 0.000000e+00 0.000000e+00
  21   5   1 0.000000e+00 0.000000e+00 0.000000e+00 0.000000e+00 0.000000e+00 0.000000e+00 0.000000e+00 0.000000e+00 0.000000e+00
  22   5   1 0.000000e+00 0.000000e+00 0.000000e+00 0.000000e+00 0.000000e+00 0.000000e+00 0.000000e+00 0.000000e+00 0.000000e+00
  23   5   1 0.000000e+00 0.000000e+00 0.000000e+00 0.000000e+00 0.000000e+00 0.000000e+00 0.000000e+00 0.000000e+00 0.000000e+00
  24   5   1 0.000000e+00 0.000000e+00 0.000000e+00 0.000000e+00 0.000000e+00 0.000000e+00 0.000000e+00 0.000000e+00 0.000000e+00
  25   5   1 0.000000e+00 0.000000e+00 0.000000e+00 0.000000e+00 0.000000e+00 0.000000e+00 0.000000e+00 0.000000e+00 0.000000e+00
  26   5   1 0.000000e+00 0.000000e+00 0.000000e+00 0.000000e+00 0.000000e+00 0.000000e+00 0.000000e+00 0.000000e+00 0.000000e+00
   1   6   1 0.000000e+00 0.000000e+00 0.000000e+00 0.000000e+00 0.000000e+00 0.000000e+00 0.000000e+00 0.000000e+00 0.000000e+00
   2   6   1 0.000000e+00 0.000000e+00 0.000000e+00 0.000000e+00 0.000000e+00 0.000000e+00 0.000000e+00 0.000000e+00 0.000000e+00
   3   6   1 0.000000e+00 0.000000e+00 0.000000e+00 0.000000e+00 0.000000e+00 0.000000e+00 0.000000e+00 0.000000e+00 0.000000e+00
   4   6   1 0.000000e+00 0.000000e+00 0.000000e+00 0.000000e+00 0.000000e+00 0.000000e+00 0.000000e+00 0.000000e+00 0.000000e+00
   5   6   1 0.000000e+00 0.000000e+00 0.000000e+00 0.000000e+00 0.000000e+00 0.000000e+00 0.000000e+00 0.000000e+00 0.000000e+00
   6   6   1 0.000000e+00 0.000000e+00 0.000000e+00 0.000000e+00 0.000000e+00 0.000000e+00 0.000000e+00 0.000000e+00 0.000000e+00
   7   6   1 0.000000e+00 0.000000e+00 0.000000e+00 0.000000e+00 0.000000e+00 0.000000e+00 0.000000e+00 0.000000e+00 0.000000e+00
   8   6   1 0.000000e+00 0.000000e+00 0.000000e+00 0.000000e+00 0.000000e+00 0.000000e+00 0.000000e+00 0.000000e+00 0.000000e+00
   9   6   1 0.000000e+00 0.000000e+00 0.000000e+00 0.000000e+00 0.000000e+00 0.000000e+00 0.000000e+00 0.000000e+00 0.000000e+00
  10   6   1 0.000000e+00 0.000000e+00 0.000000e+00 0.000000e+00 0.000000e+00 0.000000e+00 0.000000e+00 0.000000e+00 0.000000e+00
  11   6   1 0.000000e+00 0.000000e+00 0.000000e+00 0.000000e+00 0.000000e+00 0.000000e+00 0.000000e+00 0.000000e+00 0.000000e+00
  12   6   1 0.000000e+00 0.000000e+00 0.000000e+00 0.000000e+00 0.000000e+00 0.000000e+00 0.000000e+00 0.000000e+00 0.000000e+00
  13   6   1 0.000000e+00 0.000000e+00 0.000000e+00 0.000000e+00 0.000000e+00 0.000000e+00 0.000000e+00 0.000000e+00 0.000000e+00
  14   6   1 0.000000e+00 0.000000e+00 0.000000e+00 0.000000e+00 0.000000e+00 0.000000e+00 0.000000e+00 0.000000e+00 0.000000e+00
  15   6   1 0.000000e+00 0.000000e+00 0.000000e+00 0.000000e+00 0.000000e+00 0.000000e+00 0.000000e+00 0.000000e+00 0.000000e+00
  16   6   1 0.000000e+00 0.000000e+00 0.000000e+00 0.000000e+00 0.000000e+00 0.000000e+00 0.000000e+00 0.000000e+00 0.000000e+00
  17   6   1 0.000000e+00 0.000000e+00 0.000000e+00 0.000000e+00 0.000000e+00 0.000000e+00 0.000000e+00 0.000000e+00 0.000000e+00
  18   6   1 0.000000e+00 0.000000e+00 0.000000e+00 0.000000e+00 0.000000e+00 0.000000e+00 0.000000e+00 0.000000e+00 0.000000e+00
  19   6   1 0.000000e+00 0.000000e+00 0.000000e+00 0.000000e+00 0.000000e+00 0.000000e+00 0.000000e+00 0.000000e+00 0.000000e+00
  20   6   1 0.000000e+00 0.000000e+00 0.000000e+00 0.000000e+00 0.000000e+00 0.000000e+00 0.000000e+00 0.000000e+00 0.000000e+00
  21   6   1 0.000000e+00 0.000000e+00 0.000000e+00 0.000000e+00 0.000000e+00 0.000000e+00 0.000000e+00 0.000000e+00 0.000000e+00
  22   6   1 0.000000e+00 0.000000e+00 0.000000e+00 0.000000e+00 0.000000e+00 0.000000e+00 0.000000e+00 0.000000e+00 0.000000e+00
  23   6   1 0.000000e+00 0.000000e+00 0.000000e+00 0.000000e+00 0.000000e+00 0.000000e+00 0.000000e+00 0.000000e+00 0.000000e+00
  24   6   1 0.000000e+00 0.000000e+00 0.000000e+00 0.000000e+00 0.000000e+00 0.000000e+00 0.000000e+00 0.000000e+00 0.000000e+00
  25   6   1 0.000000e+00 0.000000e+00 0.000000e+00 0.000000e+00 0.000000e+00 0.000000e+00 0.000000e+00 0.000000e+00 0.000000e+00
  26   6   1 0.000000e+00 0.000000e+00 0.000000e+00 0.000000e+00 0.000000e+00 0.000000e+00 0.000000e+00 0.000000e+00 0.000000e+00
   1   7   1 0.000000e+00 0.000000e+00 0.000000e+00 0.000000e+00 0.000000e+00 0.000000e+00 0.000000e+00 0.000000e+00 0.000000e+00
   2   7   1 0.000000e+00 0.000000e+00 0.000000e+00 0.000000e+00 0.000000e+00 0.000000e+00 0.000000e+00 0.000000e+00 0.000000e+00
   3   7   1 0.000000e+00 0.000000e+00 0.000000e+00 0.000000e+00 0.000000e+00 0.000000e+00 0.000000e+00 0.000000e+00 0.000000e+00
   4   7   1 0.000000e+00 0.000000e+00 0.000000e+00 0.000000e+00 0.000000e+00 0.000000e+00 0.000000e+00 0.000000e+00 0.000000e+00
   5   7   1 0.000000e+00 0.000000e+00 0.000000e+00 0.000000e+00 0.000000e+00 0.000000e+00 0.000000e+00 0.000000e+00 0.000000e+00
   6   7   1 0.000000e+00 0.000000e+00 0.000000e+00 0.000000e+00 0.000000e+00 0.000000e+00 0.000000e+00 0.000000e+00 0.000000e+00
   7   7   1 0.000000e+00 0.000000e+00 0.000000e+00 0.000000e+00 0.000000e+00 0.000000e+00 0.000000e+00 0.000000e+00 0.000000e+00
   8   7   1 0.000000e+00 0.000000e+00 0.000000e+00 0.000000e+00 0.000000e+00 0.000000e+00 0.000000e+00 0.000000e+00 0.000000e+00
   9   7   1 0.000000e+00 0.000000e+00 0.000000e+00 0.000000e+00 0.000000e+00 0.000000e+00 0.000000e+00 0.000000e+00 0.000000e+00
  10   7   1 0.000000e+00 0.000000e+00 0.000000e+00 0.000000e+00 0.000000e+00 0.000000e+00 0.000000e+00 0.000000e+00 0.000000e+00
  11   7   1 0.000000e+00 0.000000e+00 0.000000e+00 0.000000e+00 0.000000e+00 0.000000e+00 0.000000e+00 0.000000e+00 0.000000e+00
  12   7   1 0.000000e+00 0.000000e+00 0.000000e+00 0.000000e+00 0.000000e+00 0.000000e+00 0.000000e+00 0.000000e+00 0.000000e+00
  13   7   1 0.000000e+00 0.000000e+00 0.000000e+00 0.000000e+00 0.000000e+00 0.000000e+00 0.000000e+00 0.000000e+00 0.000000e+00
  14   7   1 0.000000e+00 0.000000e+00 0.000000e+00 0.000000e+00 0.000000e+00 0.000000e+00 0.000000e+00 0.000000e+00 0.000000e+00
  15   7   1 0.000000e+00 0.000000e+00 0.000000e+00 0.000000e+00 0.000000e+00 0.000000e+00 0.000000e+00 0.000000e+00 0.000000e+00
  16   7   1 0.000000e+00 0.000000e+00 0.000000e+00 0.000000e+00 0.000000e+00 0.000000e+00 0.000000e+00 0.000000e+00 0.000000e+00
  17   7   1 0.000000e+00 0.000000e+00 0.000000e+00 0.000000e+00 0.000000e+00 0.000000e+00 0.000000e+00 0.000000e+00 0.000000e+00
  18   7   1 0.000000e+00 0.000000e+00 0.000000e+00 0.000000e+00 0.000000e+00 0.000000e+00 0.000000e+00 0.000000e+00 0.000000e+00
  19   7   1 0.000000e+00 0.000000e+00 0.000000e+00 0.000000e+00 0.000000e+00 0.000000e+00 0.000000e+00 0.000000e+00 0.000000e+00
  20   7   1 0.000000e+00 0.000000e+00 0.000000e+00 0.000000e+00 0.000000e+00 0.000000e+00 0.000000e+00 0.000000e+00 0.000000e+00
  21   7   1 0.000000e+00 0.000000e+00 0.000000e+00 0.000000e+00 0.000000e+00 0.000000e+00 0.000000e+00 0.000000e+00 0.000000e+00
  22   7   1 0.000000e+00 0.000000e+00 0.000000e+00 0.000000e+00 0.000000e+00 0.000000e+00 0.000000e+00 0.000000e+00 0.000000e+00
  23   7   1 0.000000e+00 0.000000e+00 0.000000e+00 0.000000e+00 0.000000e+00 0.000000e+00 0.000000e+00 0.000000e+00 0.000000e+00
  24   7   1 0.000000e+00 0.000000e+00 0.000000e+00 0.000000e+00 0.000000e+00 0.000000e+00 0.000000e+00 0.000000e+00 0.000000e+00
  25   7   1 0.000000e+00 0.000000e+00 0.000000e+00 0.000000e+00 0.000000e+00 0.000000e+00 0.000000e+00 0.000000e+00 0.000000e+00
  26   7   1 0.000000e+00 0.000000e+00 0.000000e+00 0.000000e+00 0.000000e+00 0.000000e+00 0.000000e+00 0.000000e+00 0.000000e+00
   1   8   1 0.000000e+00 0.000000e+00 0.000000e+00 0.000000e+00 0.000000e+00 0.000000e+00 0.000000e+00 0.000000e+00 0.000000e+00
   2   8   1 0.000000e+00 0.000000e+00 0.000000e+00 0.000000e+00 0.000000e+00 0.000000e+00 0.000000e+00 0.000000e+00 0.000000e+00
   3   8   1 0.000000e+00 0.000000e+00 0.000000e+00 0.000000e+00 0.000000e+00 0.000000e+00 0.000000e+00 0.000000e+00 0.000000e+00
   4   8   1 0.000000e+00 0.000000e+00 0.000000e+00 0.000000e+00 0.000000e+00 0.000000e+00 0.000000e+00 0.000000e+00 0.000000e+00
   5   8   1 0.000000e+00 0.000000e+00 0.000000e+00 0.000000e+00 0.000000e+00 0.000000e+00 0.000000e+00 0.000000e+00 0.000000e+00
   6   8   1 0.000000e+00 0.000000e+00 0.000000e+00 0.000000e+00 0.000000e+00 0.000000e+00 0.000000e+00 0.000000e+00 0.000000e+00
   7   8   1 0.000000e+00 0.000000e+00 0.000000e+00 0.000000e+00 0.000000e+00 0.000000e+00 0.000000e+00 0.000000e+00 0.000000e+00
   8   8   1 0.000000e+00 0.000000e+00 0.000000e+00 0.000000e+00 0.000000e+00 0.000000e+00 0.000000e+00 0.000000e+00 0.000000e+00
   9   8   1 0.000000e+00 0.000000e+00 0.000000e+00 0.000000e+00 0.000000e+00 0.000000e+00 0.000000e+00 0.000000e+00 0.000000e+00
  10   8   1 0.000000e+00 0.000000e+00 0.000000e+00 0.000000e+00 0.000000e+00 0.000000e+00 0.000000e+00 0.000000e+00 0.000000e+00
  11   8   1 0.000000e+00 0.000000e+00 0.000000e+00 0.000000e+00 0.000000e+00 0.000000e+00 0.000000e+00 0.000000e+00 0.000000e+00
  12   8   1 0.000000e+00 0.000000e+00 0.000000e+00 0.000000e+00 0.000000e+00 0.000000e+00 0.000000e+00 0.000000e+00 0.000000e+00
  13   8   1 0.000000e+00 0.000000e+00 0.000000e+00 0.000000e+00 0.000000e+00 0.000000e+00 0.000000e+00 0.000000e+00 0.000000e+00
  14   8   1 0.000000e+00 0.000000e+00 0.000000e+00 0.000000e+00 0.000000e+00 0.000000e+00 0.000000e+00 0.000000e+00 0.000000e+00
  15   8   1 0.000000e+00 0.000000e+00 0.000000e+00 0.000000e+00 0.000000e+00 0.000000e+00 0.000000e+00 0.000000e+00 0.000000e+00
  16   8   1 0.000000e+00 0.000000e+00 0.000000e+00 0.000000e+00 0.000000e+00 0.000000e+00 0.000000e+00 0.000000e+00 0.000000e+00
  17   8   1 0.000000e+00 0.000000e+00 0.000000e+00 0.000000e+00 0.000000e+00 0.000000e+00 0.000000e+00 0.000000e+00 0.000000e+00
  18   8   1 0.000000e+00 0.000000e+00 0.000000e+00 0.000000e+00 0.000000e+00 0.000000e+00 0.000000e+00 0.000000e+00 0.000000e+00
  19   8   1 0.000000e+00 0.000000e+00 0.000000e+00 0.000000e+00 0.000000e+00 0.000000e+00 0.000000e+00 0.000000e+00 0.000000e+00
  20   8   1 0.000000e+00 0.000000e+00 0.000000e+00 0.000000e+00 0.000000e+00 0.000000e+00 0.000000e+00 0.000000e+00 0.000000e+00
  21   8   1 0.000000e+00 0.000000e+00 0.000000e+00 0.000000e+00 0.000000e+00 0.000000e+00 0.000000e+00 0.000000e+00 0.000000e+00
  22   8   1 0.000000e+00 0.000000e+00 0.000000e+00 0.000000e+00 0.000000e+00 0.000000e+00 0.000000e+00 0.000000e+00 0.000000e+00
  23   8   1 0.000000e+00 0.000000e+00 0.000000e+00 0.000000e+00 0.000000e+00 0.000000e+00 0.000000e+00 0.000000e+00 0.000000e+00
  24   8   1 0.000000e+00 0.000000e+00 0.000000e+00 0.000000e+00 0.000000e+00 0.000000e+00 0.000000e+00 0.000000e+00 0.000000e+00
  25   8   1 0.000000e+00 0.000000e+00 0.000000e+00 0.000000e+00 0.000000e+00 0.000000e+00 0.000000e+00 0.000000e+00 0.000000e+00
  26   8   1 0.000000e+00 0.000000e+00 0.000000e+00 0.000000e+00 0.000000e+00 0.000000e+00 0.000000e+00 0.000000e+00 0.000000e+00
   1   9   1 0.000000e+00 0.000000e+00 0.000000e+00 0.000000e+00 0.000000e+00 0.000000e+00 0.000000e+00 0.000000e+00 0.000000e+00
   2   9   1 0.000000e+00 0.000000e+00 0.000000e+00 0.000000e+00 0.000000e+00 0.000000e+00 0.000000e+00 0.000000e+00 0.000000e+00
   3   9   1 0.000000e+00 0.000000e+00 0.000000e+00 0.000000e+00 0.000000e+00 0.000000e+00 0.000000e+00 0.000000e+00 0.000000e+00
   4   9   1 0.000000e+00 0.000000e+00 0.000000e+00 0.000000e+00 0.000000e+00 0.000000e+00 0.000000e+00 0.000000e+00 0.000000e+00
   5   9   1 0.000000e+00 0.000000e+00 0.000000e+00 0.000000e+00 0.000000e+00 0.000000e+00 0.000000e+00 0.000000e+00 0.000000e+00
   6   9   1 0.000000e+00 0.000000e+00 0.000000e+00 0.000000e+00 0.000000e+00 0.000000e+00 0.000000e+00 0.000000e+00 0.000000e+00
   7   9   1 0.000000e+00 0.000000e+00 0.000000e+00 0.000000e+00 0.000000e+00 0.000000e+00 0.000000e+00 0.000000e+00 0.000000e+00
   8   9   1 0.000000e+00 0.000000e+00 0.000000e+00 0.000000e+00 0.000000e+00 0.000000e+00 0.000000e+00 0.000000e+00 0.000000e+00
   9   9   1 0.000000e+00 0.000000e+00 0.000000e+00 0.000000e+00 0.000000e+00 0.000000e+00 0.000000e+00 0.000000e+00 0.000000e+00
  10   9   1 0.000000e+00 0.000000e+00 0.000000e+00 0.000000e+00 0.000000e+00 0.000000e+00 0.000000e+00 0.000000e+00 0.000000e+00
  11   9   1 0.000000e+00 0.000000e+00 0.000000e+00 0.000000e+00 0.000000e+00 0.000000e+00 0.000000e+00 0.000000e+00 0.000000e+00
  12   9   1 0.000000e+00 0.000000e+00 0.000000e+00 0.000000e+00 0.000000e+00 0.000000e+00 0.000000e+00 0.000000e+00 0.000000e+00
  13   9   1 0.000000e+00 0.000000e+00 0.000000e+00 0.000000e+00 0.000000e+00 0.000000e+00 0.000000e+00 0.000000e+00 0.000000e+00
  14   9   1 0.000000e+00 0.000000e+00 0.000000e+00 0.000000e+00 0.000000e+00 0.000000e+00 0.000000e+00 0.000000e+00 0.000000e+00
  15   9   1 0.000000e+00 0.000000e+00 0.000000e+00 0.000000e+00 0.000000e+00 0.000000e+00 0.000000e+00 0.000000e+00 0.000000e+00
  16   9   1 0.000000e+00 0.000000e+00 0.000000e+00 0.000000e+00 0.000000e+00 0.000000e+00 0.000000e+00 0.000000e+00 0.000000e+00
  17   9   1 0.000000e+00 0.000000e+00 0.000000e+00 0.000000e+00 0.000000e+00 0.000000e+00 0.000000e+00 0.000000e+00 0.000000e+00
  18   9   1 0.000000e+00 0.000000e+00 0.000000e+00 0.000000e+00 0.000000e+00 0.000000e+00 0.000000e+00 0.000000e+00 0.000000e+00
  19   9   1 0.000000e+00 0.000000e+00 0.000000e+00 0.000000e+00 0.000000e+00 0.000000e+00 0.000000e+00 0.000000e+00 0.000000e+00
  20   9   1 0.000000e+00 0.000000e+00 0.000000e+00 0.000000e+00 0.000000e+00 0.000000e+00 0.000000e+00 0.000000e+00 0.000000e+00
  21   9   1 0.000000e+00 0.000000e+00 0.000000e+00 0.000000e+00 0.000000e+00 0.000000e+00 0.000000e+00 0.000000e+00 0.000000e+00
  22   9   1 0.000000e+00 0.000000e+00 0.000000e+00 0.000000e+00 0.000000e+00 0.000000e+00 0.000000e+00 0.000000e+00 0.000000e+00
  23   9   1 0.000000e+00 0.000000e+00 0.000000e+00 0.000000e+00 0.000000e+00 0.000000e+00 0.000000e+00 0.000000e+00 0.000000e+00
  24   9   1 0.000000e+00 0.000000e+00 0.000000e+00 0.000000e+00 0.000000e+00 0.000000e+00 0.000000e+00 0.000000e+00 0.000000e+00
  25   9   1 0.000000e+00 0.000000e+00 0.000000e+00 0.000000e+00 0.000000e+00 0.000000e+00 0.000000e+00 0.000000e+00 0.000000e+00
  26   9   1 0.000000e+00 0.000000e+00 0.000000e+00 0.000000e+00 0.000000e+00 0.000000e+00 0.000000e+00 0.000000e+00 0.000000e+00
   1  10   1 0.000000e+00 0.000000e+00 0.000000e+00 0.000000e+00 0.000000e+00 0.000000e+00 0.000000e+00 0.000000e+00 0.000000e+00
   2  10   1 0.000000e+00 0.000000e+00 0.000000e+00 0.000000e+00 0.000000e+00 0.000000e+00 0.000000e+00 0.000000e+00 0.000000e+00
   3  10   1 0.000000e+00 0.000000e+00 0.000000e+00 0.000000e+00 0.000000e+00 0.000000e+00 0.000000e+00 0.000000e+00 0.000000e+00
   4  10   1 0.000000e+00 0.000000e+00 0.000000e+00 0.000000e+00 0.000000e+00 0.000000e+00 0.000000e+00 0.000000e+00 0.000000e+00
   5  10   1 0.000000e+00 0.000000e+00 0.000000e+00 0.000000e+00 0.000000e+00 0.000000e+00 0.000000e+00 0.000000e+00 0.000000e+00
   6  10   1 0.000000e+00 0.000000e+00 0.000000e+00 0.000000e+00 0.000000e+00 0.000000e+00 0.000000e+00 0.000000e+00 0.000000e+00
   7  10   1 0.000000e+00 0.000000e+00 0.000000e+00 0.000000e+00 0.000000e+00 0.000000e+00 0.000000e+00 0.000000e+00 0.000000e+00
   8  10   1 0.000000e+00 0.000000e+00 0.000000e+00 0.000000e+00 0.000000e+00 0.000000e+00 0.000000e+00 0.000000e+00 0.000000e+00
   9  10   1 0.000000e+00 0.000000e+00 0.000000e+00 0.000000e+00 0.000000e+00 0.000000e+00 0.000000e+00 0.000000e+00 0.000000e+00
  10  10   1 0.000000e+00 0.000000e+00 0.000000e+00 0.000000e+00 0.000000e+00 0.000000e+00 0.000000e+00 0.000000e+00 0.000000e+00
  11  10   1 0.000000e+00 0.000000e+00 0.000000e+00 0.000000e+00 0.000000e+00 0.000000e+00 0.000000e+00 0.000000e+00 0.000000e+00
  12  10   1 0.000000e+00 0.000000e+00 0.000000e+00 0.000000e+00 0.000000e+00 0.000000e+00 0.000000e+00 0.000000e+00 0.000000e+00
  13  10   1 0.000000e+00 0.000000e+00 0.000000e+00 0.000000e+00 0.000000e+00 0.000000e+00 0.000000e+00 0.000000e+00 0.000000e+00
  14  10   1 0.000000e+00 0.000000e+00 0.000000e+00 0.000000e+00 0.000000e+00 0.000000e+00 0.000000e+00 0.000000e+00 0.000000e+00
  15  10   1 0.000000e+00 0.000000e+00 0.000000e+00 0.000000e+00 0.000000e+00 0.000000e+00 0.000000e+00 0.000000e+00 0.000000e+00
  16  10   1 0.000000e+00 0.000000e+00 0.000000e+00 0.000000e+00 0.000000e+00 0.000000e+00 0.000000e+00 0.000000e+00 0.000000e+00
  17  10   1 0.000000e+00 0.000000e+00 0.000000e+00 0.000000e+00 0.000000e+00 0.000000e+00 0.000000e+00 0.000000e+00 0.000000e+00
  18  10   1 0.000000e+00 0.000000e+00 0.000000e+00 0.000000e+00 0.000000e+00 0.000000e+00 0.000000e+00 0.000000e+00 0.000000e+00
  19  10   1 0.000000e+00 0.000000e+00 0.000000e+00 0.000000e+00 0.000000e+00 0.000000e+00 0.000000e+00 0.000000e+00 0.000000e+00
  20  10   1 0.000000e+00 0.000000e+00 0.000000e+00 0.000000e+00 0.000000e+00 0.000000e+00 0.000000e+00 0.000000e+00 0.000000e+00
  21  10   1 0.000000e+00 0.000000e+00 0.000000e+00 0.000000e+00 0.000000e+00 0.000000e+00 0.000000e+00 0.000000e+00 0.000000e+00
  22  10   1 0.000000e+00 0.000000e+00 0.000000e+00 0.000000e+00 0.000000e+00 0.000000e+00 0.000000e+00 0.000000e+00 0.000000e+00
  23  10   1 0.000000e+00 0.000000e+00 0.000000e+00 0.000000e+00 0.000000e+00 0.000000e+00 0.000000e+00 0.000000e+00 0.000000e+00
  24  10   1 0.000000e+00 0.000000e+00 0.000000e+00 0.000000e+00 0.000000e+00 0.000000e+00 0.000000e+00 0.000000e+00 0.000000e+00
  25  10   1 0.000000e+00 0.000000e+00 0.000000e+00 0.000000e+00 0.000000e+00 0.000000e+00 0.000000e+00 0.000000e+00 0.000000e+00
  26  10   1 0.000000e+00 0.000000e+00 0.000000e+00 0.000000e+00 0.000000e+00 0.000000e+00 0.000000e+00 0.000000e+00 0.000000e+00
   1  11   1 0.000000e+00 0.000000e+00 0.000000e+00 0.000000e+00 0.000000e+00 0.000000e+00 0.000000e+00 0.000000e+00 0.000000e+00
   2  11   1 0.000000e+00 0.000000e+00 0.000000e+00 0.000000e+00 0.000000e+00 0.000000e+00 0.000000e+00 0.000000e+00 0.000000e+00
   3  11   1 0.000000e+00 0.000000e+00 0.000000e+00 0.000000e+00 0.000000e+00 0.000000e+00 0.000000e+00 0.000000e+00 0.000000e+00
   4  11   1 0.000000e+00 0.000000e+00 0.000000e+00 0.000000e+00 0.000000e+00 0.000000e+00 0.000000e+00 0.000000e+00 0.000000e+00
   5  11   1 0.000000e+00 0.000000e+00 0.000000e+00 0.000000e+00 0.000000e+00 0.000000e+00 0.000000e+00 0.000000e+00 0.000000e+00
   6  11   1 0.000000e+00 0.000000e+00 0.000000e+00 0.000000e+00 0.000000e+00 0.000000e+00 0.000000e+00 0.000000e+00 0.000000e+00
   7  11   1 0.000000e+00 0.000000e+00 0.000000e+00 0.000000e+00 0.000000e+00 0.000000e+00 0.000000e+00 0.000000e+00 0.000000e+00
   8  11   1 0.000000e+00 0.000000e+00 0.000000e+00 0.000000e+00 0.000000e+00 0.000000e+00 0.000000e+00 0.000000e+00 0.000000e+00
   9  11   1 0.000000e+00 0.000000e+00 0.000000e+00 0.000000e+00 0.000000e+00 0.000000e+00 0.000000e+00 0.000000e+00 0.000000e+00
  10  11   1 0.000000e+00 0.000000e+00 0.000000e+00 0.000000e+00 0.000000e+00 0.000000e+00 0.000000e+00 0.000000e+00 0.000000e+00
  11  11   1 0.000000e+00 0.000000e+00 0.000000e+00 0.000000e+00 0.000000e+00 0.000000e+00 0.000000e+00 0.000000e+00 0.000000e+00
  12  11   1 0.000000e+00 0.000000e+00 0.000000e+00 0.000000e+00 0.000000e+00 0.000000e+00 0.000000e+00 0.000000e+00 0.000000e+00
  13  11   1 0.000000e+00 0.000000e+00 0.000000e+00 0.000000e+00 0.000000e+00 0.000000e+00 0.000000e+00 0.000000e+00 0.000000e+00
  14  11   1 0.000000e+00 0.000000e+00 0.000000e+00 0.000000e+00 0.000000e+00 0.000000e+00 0.000000e+00 0.000000e+00 0.000000e+00
  15  11   1 0.000000e+00 0.000000e+00 0.000000e+00 0.000000e+00 0.000000e+00 0.000000e+00 0.000000e+00 0.000000e+00 0.000000e+00
  16  11   1 0.000000e+00 0.000000e+00 0.000000e+00 0.000000e+00 0.000000e+00 0.000000e+00 0.000000e+00 0.000000e+00 0.000000e+00
  17  11   1 0.000000e+00 0.000000e+00 0.000000e+00 0.000000e+00 0.000000e+00 0.000000e+00 0.000000e+00 0.000000e+00 0.000000e+00
  18  11   1 0.000000e+00 0.000000e+00 0.000000e+00 0.000000e+00 0.000000e+00 0.000000e+00 0.000000e+00 0.000000e+00 0.000000e+00
  19  11   1 0.000000e+00 0.000000e+00 0.000000e+00 0.000000e+00 0.000000e+00 0.000000e+00 0.000000e+00 0.000000e+00 0.000000e+00
  20  11   1 0.000000e+00 0.000000e+00 0.000000e+00 0.000000e+00 0.000000e+00 0.000000e+00 0.000000e+00 0.000000e+00 0.000000e+00
  21  11   1 0.000000e+00 0.000000e+00 0.000000e+00 0.000000e+00 0.000000e+00 0.000000e+00 0.000000e+00 0.000000e+00 0.000000e+00
  22  11   1 0.000000e+00 0.000000e+00 0.000000e+00 0.000000e+00 0.000000e+00 0.000000e+00 0.000000e+00 0.000000e+00 0.000000e+00
  23  11   1 0.000000e+00 0.000000e+00 0.000000e+00 0.000000e+00 0.000000e+00 0.000000e+00 0.000000e+00 0.000000e+00 0.000000e+00
  24  11   1 0.000000e+00 0.000000e+00 0.000000e+00 0.000000e+00 0.000000e+00 0.000000e+00 0.000000e+00 0.000000e+00 0.000000e+00
  25  11   1 0.000000e+00 0.000000e+00 0.000000e+00 0.000000e+00 0.000000e+00 0.000000e+00 0.000000e+00 0.000000e+00 0.000000e+00
  26  11   1 0.000000e+00 0.000000e+00 0.000000e+00 0.000000e+00 0.000000e+00 0.000000e+00 0.000000e+00 0.000000e+00 0.000000e+00
   1  12   1 0.000000e+00 0.000000e+00 0.000000e+00 0.000000e+00 0.000000e+00 0.000000e+00 0.000000e+00 0.000000e+00 0.000000e+00
   2  12   1 0.000000e+00 0.000000e+00 0.000000e+00 0.000000e+00 0.000000e+00 0.000000e+00 0.000000e+00 0.000000e+00 0.000000e+00
   3  12   1 0.000000e+00 0.000000e+00 0.000000e+00 0.000000e+00 0.000000e+00 0.000000e+00 0.000000e+00 0.000000e+00 0.000000e+00
   4  12   1 0.000000e+00 0.000000e+00 0.000000e+00 0.000000e+00 0.000000e+00 0.000000e+00 0.000000e+00 0.000000e+00 0.000000e+00
   5  12   1 0.000000e+00 0.000000e+00 0.000000e+00 0.000000e+00 0.000000e+00 0.000000e+00 0.000000e+00 0.000000e+00 0.000000e+00
   6  12   1 0.000000e+00 0.000000e+00 0.000000e+00 0.000000e+00 0.000000e+00 0.000000e+00 0.000000e+00 0.000000e+00 0.000000e+00
   7  12   1 0.000000e+00 0.000000e+00 0.000000e+00 0.000000e+00 0.000000e+00 0.000000e+00 0.000000e+00 0.000000e+00 0.000000e+00
   8  12   1 0.000000e+00 0.000000e+00 0.000000e+00 0.000000e+00 0.000000e+00 0.000000e+00 0.000000e+00 0.000000e+00 0.000000e+00
   9  12   1 0.000000e+00 0.000000e+00 0.000000e+00 0.000000e+00 0.000000e+00 0.000000e+00 0.000000e+00 0.000000e+00 0.000000e+00
  10  12   1 0.000000e+00 0.000000e+00 0.000000e+00 0.000000e+00 0.000000e+00 0.000000e+00 0.000000e+00 0.000000e+00 0.000000e+00
  11  12   1 0.000000e+00 0.000000e+00 0.000000e+00 0.000000e+00 0.000000e+00 0.000000e+00 0.000000e+00 0.000000e+00 0.000000e+00
  12  12   1 0.000000e+00 0.000000e+00 0.000000e+00 0.000000e+00 0.000000e+00 0.000000e+00 0.000000e+00 0.000000e+00 0.000000e+00
  13  12   1 0.000000e+00 0.000000e+00 0.000000e+00 0.000000e+00 0.000000e+00 0.000000e+00 0.000000e+00 0.000000e+00 0.000000e+00
  14  12   1 0.000000e+00 0.000000e+00 0.000000e+00 0.000000e+00 0.000000e+00 0.000000e+00 0.000000e+00 0.000000e+00 0.000000e+00
  15  12   1 0.000000e+00 0.000000e+00 0.000000e+00 0.000000e+00 0.000000e+00 0.000000e+00 0.000000e+00 0.000000e+00 0.000000e+00
  16  12   1 0.000000e+00 0.000000e+00 0.000000e+00 0.000000e+00 0.000000e+00 0.000000e+00 0.000000e+00 0.000000e+00 0.000000e+00
  17  12   1 0.000000e+00 0.000000e+00 0.000000e+00 0.000000e+00 0.000000e+00 0.000000e+00 0.000000e+00 0.000000e+00 0.000000e+00
  18  12   1 0.000000e+00 0.000000e+00 0.000000e+00 0.000000e+00 0.000000e+00 0.000000e+00 0.000000e+00 0.000000e+00 0.000000e+00
  19  12   1 0.000000e+00 0.000000e+00 0.000000e+00 0.000000e+00 0.000000e+00 0.000000e+00 0.000000e+00 0.000000e+00 0.000000e+00
  20  12   1 0.000000e+00 0.000000e+00 0.000000e+00 0.000000e+00 0.000000e+00 0.000000e+00 0.000000e+00 0.000000e+00 0.000000e+00
  21  12   1 0.000000e+00 0.000000e+00 0.000000e+00 0.000000e+00 0.000000e+00 0.000000e+00 0.000000e+00 0.000000e+00 0.000000e+00
  22  12   1 0.000000e+00 0.000000e+00 0.000000e+00 0.000000e+00 0.000000e+00 0.000000e+00 0.000000e+00 0.000000e+00 0.000000e+00
  23  12   1 0.000000e+00 0.000000e+00 0.000000e+00 0.000000e+00 0.000000e+00 0.000000e+00 0.000000e+00 0.000000e+00 0.000000e+00
  24  12   1 0.000000e+00 0.000000e+00 0.000000e+00 0.000000e+00 0.000000e+00 0.000000e+00 0.000000e+00 0.000000e+00 0.000000e+00
  25  12   1 0.000000e+00 0.000000e+00 0.000000e+00 0.000000e+00 0.000000e+00 0.000000e+00 0.000000e+00 0.000000e+00 0.000000e+00
  26  12   1 0.000000e+00 0.000000e+00 0.000000e+00 0.000000e+00 0.000000e+00 0.000000e+00 0.000000e+00 0.000000e+00 0.000000e+00
   1  13   1 0.000000e+00 0.000000e+00 0.000000e+00 0.000000e+00 0.000000e+00 0.000000e+00 0.000000e+00 0.000000e+00 0.000000e+00
   2  13   1 0.000000e+00 0.000000e+00 0.000000e+00 0.000000e+00 0.000000e+00 0.000000e+00 0.000000e+00 0.000000e+00 0.000000e+00
   3  13   1 0.000000e+00 0.000000e+00 0.000000e+00 0.000000e+00 0.000000e+00 0.000000e+00 0.000000e+00 0.000000e+00 0.000000e+00
   4  13   1 0.000000e+00 0.000000e+00 0.000000e+00 0.000000e+00 0.000000e+00 0.000000e+00 0.000000e+00 0.000000e+00 0.000000e+00
   5  13   1 0.000000e+00 0.000000e+00 0.000000e+00 0.000000e+00 0.000000e+00 0.000000e+00 0.000000e+00 0.000000e+00 0.000000e+00
   6  13   1 0.000000e+00 0.000000e+00 0.000000e+00 0.000000e+00 0.000000e+00 0.000000e+00 0.000000e+00 0.000000e+00 0.000000e+00
   7  13   1 0.000000e+00 0.000000e+00 0.000000e+00 0.000000e+00 0.000000e+00 0.000000e+00 0.000000e+00 0.000000e+00 0.000000e+00
   8  13   1 0.000000e+00 0.000000e+00 0.000000e+00 0.000000e+00 0.000000e+00 0.000000e+00 0.000000e+00 0.000000e+00 0.000000e+00
   9  13   1 0.000000e+00 0.000000e+00 0.000000e+00 0.000000e+00 0.000000e+00 0.000000e+00 0.000000e+00 0.000000e+00 0.000000e+00
  10  13   1 0.000000e+00 0.000000e+00 0.000000e+00 0.000000e+00 0.000000e+00 0.000000e+00 0.000000e+00 0.000000e+00 0.000000e+00
  11  13   1 0.000000e+00 0.000000e+00 0.000000e+00 0.000000e+00 0.000000e+00 0.000000e+00 0.000000e+00 0.000000e+00 0.000000e+00
  12  13   1 0.000000e+00 0.000000e+00 0.000000e+00 0.000000e+00 0.000000e+00 0.000000e+00 0.000000e+00 0.000000e+00 0.000000e+00
  13  13   1 0.000000e+00 0.000000e+00 0.000000e+00 0.000000e+00 0.000000e+00 0.000000e+00 0.000000e+00 0.000000e+00 0.000000e+00
  14  13   1 0.000000e+00 0.000000e+00 0.000000e+00 0.000000e+00 0.000000e+00 0.000000e+00 0.000000e+00 0.000000e+00 0.000000e+00
  15  13   1 0.000000e+00 0.000000e+00 0.000000e+00 0.000000e+00 0.000000e+00 0.000000e+00 0.000000e+00 0.000000e+00 0.000000e+00
  16  13   1 0.000000e+00 0.000000e+00 0.000000e+00 0.000000e+00 0.000000e+00 0.000000e+00 0.000000e+00 0.000000e+00 0.000000e+00
  17  13   1 0.000000e+00 0.000000e+00 0.000000e+00 0.000000e+00 0.000000e+00 0.000000e+00 0.000000e+00 0.000000e+00 0.000000e+00
  18  13   1 0.000000e+00 0.000000e+00 0.000000e+00 0.000000e+00 0.000000e+00 0.000000e+00 0.000000e+00 0.000000e+00 0.000000e+00
  19  13   1 0.000000e+00 0.000000e+00 0.000000e+00 0.000000e+00 0.000000e+00 0.000000e+00 0.000000e+00 0.000000e+00 0.000000e+00
  20  13   1 0.000000e+00 0.000000e+00 0.000000e+00 0.000000e+00 0.000000e+00 0.000000e+00 0.000000e+00 0.000000e+00 0.000000e+00
  21  13   1 0.000000e+00 0.000000e+00 0.000000e+00 0.000000e+00 0.000000e+00 0.000000e+00 0.000000e+00 0.000000e+00 0.000000e+00
  22  13   1 0.000000e+00 0.000000e+00 0.000000e+00 0.000000e+00 0.000000e+00 0.000000e+00 0.000000e+00 0.000000e+00 0.000000e+00
  23  13   1 0.000000e+00 0.000000e+00 0.000000e+00 0.000000e+00 0.000000e+00 0.000000e+00 0.000000e+00 0.000000e+00 0.000000e+00
  24  13   1 0.000000e+00 0.000000e+00 0.000000e+00 0.000000e+00 0.000000e+00 0.000000e+00 0.000000e+00 0.000000e+00 0.000000e+00
  25  13   1 0.000000e+00 0.000000e+00 0.000000e+00 0.000000e+00 0.000000e+00 0.000000e+00 0.000000e+00 0.000000e+00 0.000000e+00
  26  13   1 0.000000e+00 0.000000e+00 0.000000e+00 0.000000e+00 0.000000e+00 0.000000e+00 0.000000e+00 0.000000e+00 0.000000e+00
   1   1   2 9.041568e-04 1.448344e-03 9.041568e-04 9.050095e-04 1.451503e-03 9.050095e-04 9.041568e-04 1.448344e-03 9.041568e-04
   2   1   2 9.041568e-04 1.445997e-03 9.041568e-04 9.050095e-04 1.449147e-03 9.050095e-04 9.041568e-04 1.445997e-03 9.041568e-04
   3   1   2 8.260312e-04 1.443651e-03 9.041568e-04 8.267011e-04 1.446790e-03 9.050095e-04 8.260312e-04 1.443651e-03 9.041568e-04
   4   1   2 8.260312e-04 1.445428e-03 9.041568e-04 8.267011e-04 1.448569e-03 9.050095e-04 8.260312e-04 1.445428e-03 9.041568e-04
   5   1   2 8.260312e-04 1.443082e-03 9.837002e-04 8.267011e-04 1.446213e-03 9.847637e-04 8.260312e-04 1.443082e-03 9.837002e-04
   6   1   2 8.260312e-04 1.440160e-03 9.837002e-04 8.267011e-04 1.443278e-03 9.847637e-04 8.260312e-04 1.440160e-03 9.837002e-04
   7   1   2 8.260312e-04 1.433209e-03 9.837002e-04 8.267011e-04 1.436298e-03 9.847637e-04 8.260312e-04 1.433209e-03 9.837002e-04
   8   1   2 7.507124e-04 1.426259e-03 9.837002e-04 7.512288e-04 1.429319e-03 9.847637e-04 7.507124e-04 1.426259e-03 9.837002e-04
   9   1   2 7.507124e-04 1.431524e-03 9.837002e-04 7.512288e-04 1.434588e-03 9.847637e-04 7.507124e-04 1.431524e-03 9.837002e-04
  10   1   2 7.507124e-04 1.424574e-03 1.063033e-03 7.512288e-04 1.427609e-03 1.064332e-03 7.507124e-04 1.424574e-03 1.063033e-03
  11   1   2 7.507124e-04 1.416538e-03 1.063033e-03 7.512288e-04 1.419539e-03 1.064332e-03 7.507124e-04 1.416538e-03 1.063033e-03
  12   1   2 6.793136e-04 1.405246e-03 1.063033e-03 6.797045e-04 1.408200e-03 1.064332e-03 6.793136e-04 1.405246e-03 1.063033e-03
  13   1   2 6.793136e-04 1.393954e-03 1.063033e-03 6.797045e-04 1.396861e-03 1.064332e-03 6.793136e-04 1.393954e-03 1.063033e-03
  14   1   2 6.793136e-04 1.402507e-03 1.063033e-03 6.797045e-04 1.405422e-03 1.064332e-03 6.793136e-04 1.402507e-03 1.063033e-03
  15   1   2 6.793136e-04 1.391215e-03 1.140367e-03 6.797045e-04 1.394083e-03 1.141918e-03 6.793136e-04 1.391215e-03 1.140367e-03
  16   1   2 6.793136e-04 1.378451e-03 1.140367e-03 6.797045e-04 1.381268e-03 1.141918e-03 6.793136e-04 1.378451e-03 1.140367e-03
  17   1   2 6.126716e-04 1.363235e-03 1.143265e-03 6.129625e-04 1.365991e-03 1.144823e-03 6.126716e-04 1.363235e-03 1.143265e-03
  18   1   2 6.126716e-04 1.348020e-03 1.212680e-03 6.129625e-04 1.350714e-03 1.214416e-03 6.126716e-04 1.348020e-03 1.212680e-03
  19   1   2 6.126716e-04 1.359544e-03 1.212680e-03 6.129625e-04 1.362248e-03 1.214416e-03 6.126716e-04 1.359544e-03 1.212680e-03
  20   1   2 6.126716e-04 1.344328e-03 1.212351e-03 6.129625e-04 1.346971e-03 1.214416e-03 6.126716e-04 1.344328e-03 1.212351e-03
  21   1   2 6.126716e-04 1.327425e-03 1.212351e-03 6.129625e-04 1.330002e-03 1.214416e-03 6.126716e-04 1.327425e-03 1.212351e-03
  22   1   2 5.513683e-04 1.308836e-03 1.217676e-03 5.515815e-04 1.311342e-03 1.219760e-03 5.513683e-04 1.308836e-03 1.217676e-03
  23   1   2 5.513683e-04 1.322913e-03 1.238976e-03 5.515815e-04 1.325431e-03 1.241137e-03 5.513683e-04 1.322913e-03 1.238976e-03
  24   1   2 5.513683e-04 1.304324e-03 1.260277e-03 5.515815e-04 1.306770e-03 1.262514e-03 5.513683e-04 1.304324e-03 1.260277e-03
  25   1   2 5.513683e-04 1.285734e-03 1.244150e-03 5.515815e-04 1.288110e-03 1.246374e-03 5.513683e-04 1.285734e-03 1.244150e-03
  26   1   2 5.513683e-04 1.265450e-03 1.265450e-03 5.515815e-04 1.267751e-03 1.267751e-03 5.513683e-04 1.265450e-03 1.265450e-03
   1   2   2 9.041568e-04 1.448680e-03 9.041568e-04 9.050095e-04 1.451469e-03 9.050095e-04 9.038977e-04 1.448461e-03 9.038977e-04
   2   2   2 9.041568e-04 1.446333e-03 9.041568e-04 9.050095e-04 1.449112e-03 9.050095e-04 9.038977e-04 1.446118e-03 9.038977e-04
   3   2   2 8.260312e-04 1.443987e-03 9.041568e-04 8.267011e-04 1.446756e-03 9.050095e-04 8.258276e-04 1.443774e-03 9.038977e-04
   4   2   2 8.260312e-04 1.445760e-03 9.041568e-04 8.267011e-04 1.448535e-03 9.050095e-04 8.258276e-04 1.445539e-03 9.038977e-04
   5   2   2 8.260312e-04 1.443414e-03 9.837002e-04 8.267011e-04 1.446179e-03 9.847637e-04 8.258276e-04 1.443195e-03 9.833770e-04
   6   2   2 8.260312e-04 1.440492e-03 9.837002e-04 8.267011e-04 1.443244e-03 9.847637e-04 8.258276e-04 1.440277e-03 9.833770e-04
   7   2   2 8.260312e-04 1.433541e-03 9.837002e-04 8.267011e-04 1.436264e-03 9.847637e-04 8.258276e-04 1.433336e-03 9.833770e-04
   8   2   2 7.507124e-04 1.426591e-03 9.837002e-04 7.512288e-04 1.429285e-03 9.847637e-04 7.505555e-04 1.426394e-03 9.833770e-04
   9   2   2 7.507124e-04 1.431844e-03 9.837002e-04 7.512288e-04 1.434556e-03 9.847637e-04 7.505555e-04 1.431620e-03 9.833770e-04
  10   2   2 7.507124e-04 1.424894e-03 1.063033e-03 7.512288e-04 1.427576e-03 1.064332e-03 7.505555e-04 1.424679e-03 1.062639e-03
  11   2   2 7.507124e-04 1.416858e-03 1.063033e-03 7.512288e-04 1.419506e-03 1.064332e-03 7.505555e-04 1.416654e-03 1.062639e-03
  12   2   2 6.793136e-04 1.405566e-03 1.063033e-03 6.797045e-04 1.408167e-03 1.064332e-03 6.791949e-04 1.405376e-03 1.062639e-03
  13   2   2 6.793136e-04 1.394274e-03 1.063033e-03 6.797045e-04 1.396828e-03 1.064332e-03 6.791949e-04 1.394098e-03 1.062639e-03
  14   2   2 6.793136e-04 1.402809e-03 1.063033e-03 6.797045e-04 1.405391e-03 1.064332e-03 6.791949e-04 1.402590e-03 1.062639e-03
  15   2   2 6.793136e-04 1.391517e-03 1.140367e-03 6.797045e-04 1.394052e-03 1.141918e-03 6.791949e-04 1.391312e-03 1.139896e-03
  16   2   2 6.793136e-04 1.378753e-03 1.140367e-03 6.797045e-04 1.381237e-03 1.141918e-03 6.791949e-04 1.378564e-03 1.139896e-03
  17   2   2 6.126716e-04 1.363537e-03 1.143265e-03 6.129625e-04 1.365960e-03 1.144823e-03 6.125832e-04 1.363367e-03 1.142791e-03
  18   2   2 6.126716e-04 1.348322e-03 1.212680e-03 6.129625e-04 1.350683e-03 1.214416e-03 6.125832e-04 1.348169e-03 1.212153e-03
  19   2   2 6.126716e-04 1.359822e-03 1.212680e-03 6.129625e-04 1.362220e-03 1.214416e-03 6.125832e-04 1.359613e-03 1.212153e-03
  20   2   2 6.126716e-04 1.344606e-03 1.212570e-03 6.129625e-04 1.346943e-03 1.214394e-03 6.125832e-04 1.344416e-03 1.212427e-03
  21   2   2 6.126716e-04 1.327703e-03 1.212570e-03 6.129625e-04 1.329974e-03 1.214394e-03 6.125832e-04 1.327533e-03 1.212427e-03
  22   2   2 5.513683e-04 1.309114e-03 1.217895e-03 5.515815e-04 1.311313e-03 1.219738e-03 5.513036e-04 1.308965e-03 1.217747e-03
  23   2   2 5.513683e-04 1.323163e-03 1.239196e-03 5.515815e-04 1.325405e-03 1.241115e-03 5.513036e-04 1.322949e-03 1.239024e-03
  24   2   2 5.513683e-04 1.304573e-03 1.260497e-03 5.515815e-04 1.306744e-03 1.262491e-03 5.513036e-04 1.304381e-03 1.260302e-03
  25   2   2 5.513683e-04 1.285984e-03 1.244400e-03 5.515815e-04 1.288084e-03 1.246349e-03 5.513036e-04 1.285813e-03 1.244275e-03
  26   2   2 5.513683e-04 1.265700e-03 1.265700e-03 5.515815e-04 1.267726e-03 1.267726e-03 5.513036e-04 1.265552e-03 1.265552e-03
   1   3   2 9.041568e-04 1.449003e-03 9.041568e-04 9.049829e-04 1.451481e-03 9.049829e-04 9.038977e-04 1.448125e-03 9.038977e-04
   2   3   2 9.041568e-04 1.446656e-03 9.041568e-04 9.049829e-04 1.449124e-03 9.049829e-04 9.038977e-04 1.445782e-03 9.038977e-04
   3   3   2 8.260312e-04 1.444310e-03 9.041568e-04 8.266803e-04 1.446768e-03 9.049829e-04 8.258276e-04 1.443438e-03 9.038977e-04
   4   3   2 8.260312e-04 1.446079e-03 9.041568e-04 8.266803e-04 1.448547e-03 9.049829e-04 8.258276e-04 1.445207e-03 9.038977e-04
   5   3   2 8.260312e-04 1.443733e-03 9.837002e-04 8.266803e-04 1.446190e-03 9.847305e-04 8.258276e-04 1.442863e-03 9.833770e-04
   6   3   2 8.260312e-04 1.440811e-03 9.837002e-04 8.266803e-04 1.443256e-03 9.847305e-04 8.258276e-04 1.439945e-03 9.833770e-04
   7   3   2 8.260312e-04 1.433861e-03 9.837002e-04 8.266803e-04 1.436277e-03 9.847305e-04 8.258276e-04 1.433003e-03 9.833770e-04
   8   3   2 7.507124e-04 1.426910e-03 9.837002e-04 7.512127e-04 1.429299e-03 9.847305e-04 7.505555e-04 1.426062e-03 9.833770e-04
   9   3   2 7.507124e-04 1.432152e-03 9.837002e-04 7.512127e-04 1.434565e-03 9.847305e-04 7.505555e-04 1.431300e-03 9.833770e-04
  10   3   2 7.507124e-04 1.425202e-03 1.063033e-03 7.512127e-04 1.427587e-03 1.064291e-03 7.505555e-04 1.424359e-03 1.062639e-03
  11   3   2 7.507124e-04 1.417166e-03 1.063033e-03 7.512127e-04 1.419518e-03 1.064291e-03 7.505555e-04 1.416333e-03 1.062639e-03
  12   3   2 6.793136e-04 1.405874e-03 1.063033e-03 6.796923e-04 1.408181e-03 1.064291e-03 6.791949e-04 1.405055e-03 1.062639e-03
  13   3   2 6.793136e-04 1.394582e-03 1.063033e-03 6.796923e-04 1.396843e-03 1.064291e-03 6.791949e-04 1.393777e-03 1.062639e-03
  14   3   2 6.793136e-04 1.403099e-03 1.063033e-03 6.796923e-04 1.405400e-03 1.064291e-03 6.791949e-04 1.402288e-03 1.062639e-03
  15   3   2 6.793136e-04 1.391807e-03 1.140367e-03 6.796923e-04 1.394062e-03 1.141870e-03 6.791949e-04 1.391010e-03 1.139896e-03
  16   3   2 6.793136e-04 1.379044e-03 1.140367e-03 6.796923e-04 1.381248e-03 1.141870e-03 6.791949e-04 1.378262e-03 1.139896e-03
  17   3   2 6.126716e-04 1.363828e-03 1.143265e-03 6.129535e-04 1.365973e-03 1.144774e-03 6.125832e-04 1.363065e-03 1.142791e-03
  18   3   2 6.126716e-04 1.348612e-03 1.212680e-03 6.129535e-04 1.350698e-03 1.214362e-03 6.125832e-04 1.347867e-03 1.212153e-03
  19   3   2 6.126716e-04 1.360089e-03 1.212680e-03 6.129535e-04 1.362227e-03 1.214362e-03 6.125832e-04 1.359335e-03 1.212153e-03
  20   3   2 6.126716e-04 1.344873e-03 1.212781e-03 6.129535e-04 1.346952e-03 1.214401e-03 6.125832e-04 1.344138e-03 1.212208e-03
  21   3   2 6.126716e-04 1.327970e-03 1.212781e-03 6.129535e-04 1.329985e-03 1.214401e-03 6.125832e-04 1.327255e-03 1.212208e-03
  22   3   2 5.513683e-04 1.309381e-03 1.218107e-03 5.515749e-04 1.311327e-03 1.219745e-03 5.513036e-04 1.308688e-03 1.217527e-03
  23   3   2 5.513683e-04 1.323403e-03 1.239407e-03 5.515749e-04 1.325409e-03 1.241120e-03 5.513036e-04 1.322699e-03 1.238804e-03
  24   3   2 5.513683e-04 1.304813e-03 1.260708e-03 5.515749e-04 1.306750e-03 1.262494e-03 5.513036e-04 1.304131e-03 1.260082e-03
  25   3   2 5.513683e-04 1.286224e-03 1.244640e-03 5.515749e-04 1.288092e-03 1.246362e-03 5.513036e-04 1.285564e-03 1.244025e-03
  26   3   2 5.513683e-04 1.265940e-03 1.265940e-03 5.515749e-04 1.267736e-03 1.267736e-03 5.513036e-04 1.265302e-03 1.265302e-03
   1   4   2 9.041568e-04 1.449313e-03 9.041568e-04 9.049829e-04 1.451446e-03 9.049829e-04 9.038977e-04 1.447779e-03 9.038977e-04
   2   4   2 9.041568e-04 1.446966e-03 9.041568e-04 9.049829e-04 1.449090e-03 9.049829e-04 9.038977e-04 1.445436e-03 9.038977e-04
   3   4   2 8.260312e-04 1.444619e-03 9.041568e-04 8.266803e-04 1.446734e-03 9.049829e-04 8.258276e-04 1.443092e-03 9.038977e-04
   4   4   2 8.260312e-04 1.446386e-03 9.041568e-04 8.266803e-04 1.448512e-03 9.049829e-04 8.258276e-04 1.444865e-03 9.038977e-04
   5   4   2 8.260312e-04 1.444039e-03 9.837002e-04 8.266803e-04 1.446156e-03 9.847305e-04 8.258276e-04 1.442521e-03 9.833770e-04
   6   4   2 8.260312e-04 1.441117e-03 9.837002e-04 8.266803e-04 1.443222e-03 9.847305e-04 8.258276e-04 1.439603e-03 9.833770e-04
   7   4   2 8.260312e-04 1.434167e-03 9.837002e-04 8.266803e-04 1.436243e-03 9.847305e-04 8.258276e-04 1.432661e-03 9.833770e-04
   8   4   2 7.507124e-04 1.427216e-03 9.837002e-04 7.512127e-04 1.429264e-03 9.847305e-04 7.505555e-04 1.425720e-03 9.833770e-04
   9   4   2 7.507124e-04 1.432448e-03 9.837002e-04 7.512127e-04 1.434533e-03 9.847305e-04 7.505555e-04 1.430970e-03 9.833770e-04
  10   4   2 7.507124e-04 1.425498e-03 1.063033e-03 7.512127e-04 1.427554e-03 1.064291e-03 7.505555e-04 1.424029e-03 1.062639e-03
  11   4   2 7.507124e-04 1.417462e-03 1.063033e-03 7.512127e-04 1.419485e-03 1.064291e-03 7.505555e-04 1.416003e-03 1.062639e-03
  12   4   2 6.793136e-04 1.406170e-03 1.063033e-03 6.796923e-04 1.408148e-03 1.064291e-03 6.791949e-04 1.404725e-03 1.062639e-03
  13   4   2 6.793136e-04 1.394878e-03 1.063033e-03 6.796923e-04 1.396810e-03 1.064291e-03 6.791949e-04 1.393447e-03 1.062639e-03
  14   4   2 6.793136e-04 1.403378e-03 1.063033e-03 6.796923e-04 1.405369e-03 1.064291e-03 6.791949e-04 1.401976e-03 1.062639e-03
  15   4   2 6.793136e-04 1.392086e-03 1.140367e-03 6.796923e-04 1.394031e-03 1.141870e-03 6.791949e-04 1.390699e-03 1.139896e-03
  16   4   2 6.793136e-04 1.379322e-03 1.140367e-03 6.796923e-04 1.381217e-03 1.141870e-03 6.791949e-04 1.377951e-03 1.139896e-03
  17   4   2 6.126716e-04 1.364106e-03 1.143265e-03 6.129535e-04 1.365942e-03 1.144774e-03 6.125832e-04 1.362754e-03 1.142791e-03
  18   4   2 6.126716e-04 1.348890e-03 1.212680e-03 6.129535e-04 1.350667e-03 1.214362e-03 6.125832e-04 1.347556e-03 1.212153e-03
  19   4   2 6.126716e-04 1.360345e-03 1.212680e-03 6.129535e-04 1.362198e-03 1.214362e-03 6.125832e-04 1.359049e-03 1.212153e-03
  20   4   2 6.126716e-04 1.345129e-03 1.212984e-03 6.129535e-04 1.346923e-03 1.214379e-03 6.125832e-04 1.343852e-03 1.211981e-03
  21   4   2 6.126716e-04 1.328226e-03 1.212984e-03 6.129535e-04 1.329957e-03 1.214379e-03 6.125832e-04 1.326969e-03 1.211981e-03
  22   4   2 5.513683e-04 1.309637e-03 1.218309e-03 5.515749e-04 1.311298e-03 1.219723e-03 5.513036e-04 1.308401e-03 1.217301e-03
  23   4   2 5.513683e-04 1.323633e-03 1.239610e-03 5.515749e-04 1.325383e-03 1.241097e-03 5.513036e-04 1.322442e-03 1.238578e-03
  24   4   2 5.513683e-04 1.305044e-03 1.260910e-03 5.515749e-04 1.306725e-03 1.262472e-03 5.513036e-04 1.303874e-03 1.259856e-03
  25   4   2 5.513683e-04 1.286454e-03 1.244870e-03 5.515749e-04 1.288066e-03 1.246336e-03 5.513036e-04 1.285306e-03 1.243768e-03
  26   4   2 5.513683e-04 1.266171e-03 1.266171e-03 5.515749e-04 1.267711e-03 1.267711e-03 5.513036e-04 1.265045e-03 1.265045e-03
   1   5   2 9.043956e-04 1.449204e-03 9.043956e-04 9.049829e-04 1.451395e-03 9.049829e-04 9.038977e-04 1.447430e-03 9.038977e-04
   2   5   2 9.043956e-04 1.446855e-03 9.043956e-04 9.049829e-04 1.449039e-03 9.049829e-04 9.038977e-04 1.445086e-03 9.038977e-04
   3   5   2 8.262188e-04 1.444505e-03 9.043956e-04 8.266803e-04 1.446682e-03 9.049829e-04 8.258276e-04 1.442743e-03 9.038977e-04
   4   5   2 8.262188e-04 1.446284e-03 9.043956e-04 8.266803e-04 1.448462e-03 9.049829e-04 8.258276e-04 1.444519e-03 9.038977e-04
   5   5   2 8.262188e-04 1.443934e-03 9.839980e-04 8.266803e-04 1.446105e-03 9.847305e-04 8.258276e-04 1.442176e-03 9.833770e-04
   6   5   2 8.262188e-04 1.441009e-03 9.839980e-04 8.266803e-04 1.443171e-03 9.847305e-04 8.258276e-04 1.439257e-03 9.833770e-04
   7   5   2 8.262188e-04 1.434050e-03 9.839980e-04 8.266803e-04 1.436193e-03 9.847305e-04 8.258276e-04 1.432316e-03 9.833770e-04
   8   5   2 7.508570e-04 1.427092e-03 9.839980e-04 7.512127e-04 1.429214e-03 9.847305e-04 7.505555e-04 1.425375e-03 9.833770e-04
   9   5   2 7.508570e-04 1.432359e-03 9.839980e-04 7.512127e-04 1.434484e-03 9.847305e-04 7.505555e-04 1.430637e-03 9.833770e-04
  10   5   2 7.508570e-04 1.425400e-03 1.063397e-03 7.512127e-04 1.427505e-03 1.064291e-03 7.505555e-04 1.423695e-03 1.062639e-03
  11   5   2 7.508570e-04 1.417355e-03 1.063397e-03 7.512127e-04 1.419436e-03 1.064291e-03 7.505555e-04 1.415670e-03 1.062639e-03
  12   5   2 6.794231e-04 1.406050e-03 1.063397e-03 6.796923e-04 1.408099e-03 1.064291e-03 6.791949e-04 1.404392e-03 1.062639e-03
  13   5   2 6.794231e-04 1.394745e-03 1.063397e-03 6.796923e-04 1.396762e-03 1.064291e-03 6.791949e-04 1.393114e-03 1.062639e-03
  14   5   2 6.794231e-04 1.403302e-03 1.063397e-03 6.796923e-04 1.405323e-03 1.064291e-03 6.791949e-04 1.401662e-03 1.062639e-03
  15   5   2 6.794231e-04 1.391996e-03 1.140802e-03 6.796923e-04 1.393985e-03 1.141870e-03 6.791949e-04 1.390385e-03 1.139896e-03
  16   5   2 6.794231e-04 1.379218e-03 1.140802e-03 6.796923e-04 1.381171e-03 1.141870e-03 6.791949e-04 1.377637e-03 1.139896e-03
  17   5   2 6.127531e-04 1.363985e-03 1.143701e-03 6.129535e-04 1.365896e-03 1.144774e-03 6.125832e-04 1.362439e-03 1.142791e-03
  18   5   2 6.127531e-04 1.348752e-03 1.213166e-03 6.129535e-04 1.350621e-03 1.214362e-03 6.125832e-04 1.347242e-03 1.212153e-03
  19   5   2 6.127531e-04 1.360281e-03 1.213166e-03 6.129535e-04 1.362156e-03 1.214362e-03 6.125832e-04 1.358760e-03 1.212153e-03
  20   5   2 6.127531e-04 1.345048e-03 1.212913e-03 6.129535e-04 1.346881e-03 1.214345e-03 6.125832e-04 1.343563e-03 1.211753e-03
  21   5   2 6.127531e-04 1.328127e-03 1.212913e-03 6.129535e-04 1.329914e-03 1.214345e-03 6.125832e-04 1.326680e-03 1.211753e-03
  22   5   2 5.514280e-04 1.309517e-03 1.218244e-03 5.515749e-04 1.311256e-03 1.219689e-03 5.513036e-04 1.308112e-03 1.217072e-03
  23   5   2 5.514280e-04 1.323600e-03 1.239566e-03 5.515749e-04 1.325345e-03 1.241064e-03 5.513036e-04 1.322182e-03 1.238350e-03
  24   5   2 5.514280e-04 1.304991e-03 1.260887e-03 5.515749e-04 1.306687e-03 1.262438e-03 5.513036e-04 1.303614e-03 1.259627e-03
  25   5   2 5.514280e-04 1.286381e-03 1.244755e-03 5.515749e-04 1.288028e-03 1.246298e-03 5.513036e-04 1.285046e-03 1.243508e-03
  26   5   2 5.514280e-04 1.266077e-03 1.266077e-03 5.515749e-04 1.267672e-03 1.267672e-03 5.513036e-04 1.264785e-03 1.264785e-03
   1   6   2 9.043956e-04 1.449514e-03 9.043956e-04 9.049829e-04 1.451293e-03 9.049829e-04 9.036283e-04 1.447552e-03 9.036283e-04
   2   6   2 9.043956e-04 1.447165e-03 9.043956e-04 9.049829e-04 1.448937e-03 9.049829e-04 9.036283e-04 1.445212e-03 9.036283e-04
   3   6   2 8.262188e-04 1.444815e-03 9.043956e-04 8.266803e-04 1.446580e-03 9.049829e-04 8.256160e-04 1.442871e-03 9.036283e-04
   4   6   2 8.262188e-04 1.446590e-03 9.043956e-04 8.266803e-04 1.448361e-03 9.049829e-04 8.256160e-04 1.444634e-03 9.036283e-04
   5   6   2 8.262188e-04 1.444240e-03 9.839980e-04 8.266803e-04 1.446005e-03 9.847305e-04 8.256160e-04 1.442294e-03 9.830410e-04
   6   6   2 8.262188e-04 1.441315e-03 9.839980e-04 8.266803e-04 1.443071e-03 9.847305e-04 8.256160e-04 1.439379e-03 9.830410e-04
   7   6   2 8.262188e-04 1.434356e-03 9.839980e-04 8.266803e-04 1.436092e-03 9.847305e-04 8.256160e-04 1.432447e-03 9.830410e-04
   8   6   2 7.508570e-04 1.427398e-03 9.839980e-04 7.512127e-04 1.429113e-03 9.847305e-04 7.503923e-04 1.425515e-03 9.830410e-04
   9   6   2 7.508570e-04 1.432654e-03 9.839980e-04 7.512127e-04 1.434386e-03 9.847305e-04 7.503923e-04 1.430737e-03 9.830410e-04
  10   6   2 7.508570e-04 1.425696e-03 1.063397e-03 7.512127e-04 1.427407e-03 1.064291e-03 7.503923e-04 1.423805e-03 1.062228e-03
  11   6   2 7.508570e-04 1.417651e-03 1.063397e-03 7.512127e-04 1.419339e-03 1.064291e-03 7.503923e-04 1.415790e-03 1.062228e-03
  12   6   2 6.794231e-04 1.406345e-03 1.063397e-03 6.796923e-04 1.408002e-03 1.064291e-03 6.790713e-04 1.404527e-03 1.062228e-03
  13   6   2 6.794231e-04 1.395040e-03 1.063397e-03 6.796923e-04 1.396664e-03 1.064291e-03 6.790713e-04 1.393264e-03 1.062228e-03
  14   6   2 6.794231e-04 1.403580e-03 1.063397e-03 6.796923e-04 1.405231e-03 1.064291e-03 6.790713e-04 1.401748e-03 1.062228e-03
  15   6   2 6.794231e-04 1.392275e-03 1.140802e-03 6.796923e-04 1.393894e-03 1.141870e-03 6.790713e-04 1.390485e-03 1.139406e-03
  16   6   2 6.794231e-04 1.379497e-03 1.140802e-03 6.796923e-04 1.381080e-03 1.141870e-03 6.790713e-04 1.377754e-03 1.139406e-03
  17   6   2 6.127531e-04 1.364264e-03 1.143701e-03 6.129535e-04 1.365805e-03 1.144774e-03 6.124913e-04 1.362576e-03 1.142299e-03
  18   6   2 6.127531e-04 1.349031e-03 1.213166e-03 6.129535e-04 1.350530e-03 1.214362e-03 6.124913e-04 1.347398e-03 1.211604e-03
  19   6   2 6.127531e-04 1.360537e-03 1.213166e-03 6.129535e-04 1.362071e-03 1.214362e-03 6.124913e-04 1.358832e-03 1.211604e-03
  20   6   2 6.127531e-04 1.345304e-03 1.213116e-03 6.129535e-04 1.346796e-03 1.214279e-03 6.124913e-04 1.343654e-03 1.211833e-03
  21   6   2 6.127531e-04 1.328383e-03 1.213116e-03 6.129535e-04 1.329830e-03 1.214279e-03 6.124913e-04 1.326792e-03 1.211833e-03
  22   6   2 5.514280e-04 1.309774e-03 1.218446e-03 5.515749e-04 1.311171e-03 1.219622e-03 5.512362e-04 1.308247e-03 1.217146e-03
  23   6   2 5.514280e-04 1.323830e-03 1.239768e-03 5.515749e-04 1.325269e-03 1.240997e-03 5.512362e-04 1.322220e-03 1.238399e-03
  24   6   2 5.514280e-04 1.305221e-03 1.261090e-03 5.515749e-04 1.306611e-03 1.262371e-03 5.512362e-04 1.303674e-03 1.259653e-03
  25   6   2 5.514280e-04 1.286612e-03 1.244985e-03 5.515749e-04 1.287952e-03 1.246222e-03 5.512362e-04 1.285129e-03 1.243638e-03
  26   6   2 5.514280e-04 1.266307e-03 1.266307e-03 5.515749e-04 1.267597e-03 1.267597e-03 5.512362e-04 1.264891e-03 1.264891e-03
   1   7   2 9.043956e-04 1.449795e-03 9.043956e-04 9.049043e-04 1.451329e-03 9.049043e-04 9.036283e-04 1.447202e-03 9.036283e-04
   2   7   2 9.043956e-04 1.447446e-03 9.043956e-04 9.049043e-04 1.448973e-03 9.049043e-04 9.036283e-04 1.444862e-03 9.036283e-04
   3   7   2 8.262188e-04 1.445096e-03 9.043956e-04 8.266185e-04 1.446618e-03 9.049043e-04 8.256160e-04 1.442522e-03 9.036283e-04
   4   7   2 8.262188e-04 1.446868e-03 9.043956e-04 8.266185e-04 1.448394e-03 9.049043e-04 8.256160e-04 1.444289e-03 9.036283e-04
   5   7   2 8.262188e-04 1.444518e-03 9.839980e-04 8.266185e-04 1.446039e-03 9.846324e-04 8.256160e-04 1.441948e-03 9.830410e-04
   6   7   2 8.262188e-04 1.441593e-03 9.839980e-04 8.266185e-04 1.443106e-03 9.846324e-04 8.256160e-04 1.439034e-03 9.830410e-04
   7   7   2 8.262188e-04 1.434634e-03 9.839980e-04 8.266185e-04 1.436130e-03 9.846324e-04 8.256160e-04 1.432102e-03 9.830410e-04
   8   7   2 7.508570e-04 1.427676e-03 9.839980e-04 7.511651e-04 1.429154e-03 9.846324e-04 7.503923e-04 1.425170e-03 9.830410e-04
   9   7   2 7.508570e-04 1.432922e-03 9.839980e-04 7.511651e-04 1.434416e-03 9.846324e-04 7.503923e-04 1.430404e-03 9.830410e-04
  10   7   2 7.508570e-04 1.425964e-03 1.063397e-03 7.511651e-04 1.427440e-03 1.064171e-03 7.503923e-04 1.423472e-03 1.062228e-03
  11   7   2 7.508570e-04 1.417919e-03 1.063397e-03 7.511651e-04 1.419374e-03 1.064171e-03 7.503923e-04 1.415457e-03 1.062228e-03
  12   7   2 6.794231e-04 1.406614e-03 1.063397e-03 6.796563e-04 1.408041e-03 1.064171e-03 6.790713e-04 1.404194e-03 1.062228e-03
  13   7   2 6.794231e-04 1.395308e-03 1.063397e-03 6.796563e-04 1.396708e-03 1.064171e-03 6.790713e-04 1.392931e-03 1.062228e-03
  14   7   2 6.794231e-04 1.403833e-03 1.063397e-03 6.796563e-04 1.405256e-03 1.064171e-03 6.790713e-04 1.401434e-03 1.062228e-03
  15   7   2 6.794231e-04 1.392527e-03 1.140802e-03 6.796563e-04 1.393923e-03 1.141727e-03 6.790713e-04 1.390171e-03 1.139406e-03
  16   7   2 6.794231e-04 1.379749e-03 1.140802e-03 6.796563e-04 1.381114e-03 1.141727e-03 6.790713e-04 1.377440e-03 1.139406e-03
  17   7   2 6.127531e-04 1.364516e-03 1.143701e-03 6.129267e-04 1.365844e-03 1.144631e-03 6.124913e-04 1.362262e-03 1.142299e-03
  18   7   2 6.127531e-04 1.349283e-03 1.213166e-03 6.129267e-04 1.350575e-03 1.214202e-03 6.124913e-04 1.347084e-03 1.211604e-03
  19   7   2 6.127531e-04 1.360770e-03 1.213166e-03 6.129267e-04 1.362092e-03 1.214202e-03 6.124913e-04 1.358543e-03 1.211604e-03
  20   7   2 6.127531e-04 1.345537e-03 1.213299e-03 6.129267e-04 1.346823e-03 1.214302e-03 6.124913e-04 1.343365e-03 1.211604e-03
  21   7   2 6.127531e-04 1.328616e-03 1.213299e-03 6.129267e-04 1.329863e-03 1.214302e-03 6.124913e-04 1.326503e-03 1.211604e-03
  22   7   2 5.514280e-04 1.310006e-03 1.218630e-03 5.515552e-04 1.311211e-03 1.219644e-03 5.512362e-04 1.307958e-03 1.216918e-03
  23   7   2 5.514280e-04 1.324039e-03 1.239952e-03 5.515552e-04 1.325280e-03 1.241011e-03 5.512362e-04 1.321960e-03 1.238171e-03
  24   7   2 5.514280e-04 1.305430e-03 1.261274e-03 5.515552e-04 1.306628e-03 1.262379e-03 5.512362e-04 1.303414e-03 1.259424e-03
  25   7   2 5.514280e-04 1.286821e-03 1.245194e-03 5.515552e-04 1.287977e-03 1.246260e-03 5.512362e-04 1.284869e-03 1.243378e-03
  26   7   2 5.514280e-04 1.266516e-03 1.266516e-03 5.515552e-04 1.267628e-03 1.267628e-03 5.512362e-04 1.264631e-03 1.264631e-03
   1   8   2 9.043956e-04 1.450067e-03 9.043956e-04 9.049043e-04 1.451227e-03 9.049043e-04 9.036283e-04 1.446853e-03 9.036283e-04
   2   8   2 9.043956e-04 1.447717e-03 9.043956e-04 9.049043e-04 1.448871e-03 9.049043e-04 9.036283e-04 1.444513e-03 9.036283e-04
   3   8   2 8.262188e-04 1.445368e-03 9.043956e-04 8.266185e-04 1.446516e-03 9.049043e-04 8.256160e-04 1.442172e-03 9.036283e-04
   4   8   2 8.262188e-04 1.447136e-03 9.043956e-04 8.266185e-04 1.448294e-03 9.049043e-04 8.256160e-04 1.443943e-03 9.036283e-04
   5   8   2 8.262188e-04 1.444787e-03 9.839980e-04 8.266185e-04 1.445938e-03 9.846324e-04 8.256160e-04 1.441603e-03 9.830410e-04
   6   8   2 8.262188e-04 1.441861e-03 9.839980e-04 8.266185e-04 1.443005e-03 9.846324e-04 8.256160e-04 1.438689e-03 9.830410e-04
   7   8   2 8.262188e-04 1.434903e-03 9.839980e-04 8.266185e-04 1.436029e-03 9.846324e-04 8.256160e-04 1.431757e-03 9.830410e-04
   8   8   2 7.508570e-04 1.427944e-03 9.839980e-04 7.511651e-04 1.429053e-03 9.846324e-04 7.503923e-04 1.424825e-03 9.830410e-04
   9   8   2 7.508570e-04 1.433181e-03 9.839980e-04 7.511651e-04 1.434318e-03 9.846324e-04 7.503923e-04 1.430070e-03 9.830410e-04
  10   8   2 7.508570e-04 1.426223e-03 1.063397e-03 7.511651e-04 1.427342e-03 1.064171e-03 7.503923e-04 1.423138e-03 1.062228e-03
  11   8   2 7.508570e-04 1.418178e-03 1.063397e-03 7.511651e-04 1.419277e-03 1.064171e-03 7.503923e-04 1.415124e-03 1.062228e-03
  12   8   2 6.794231e-04 1.406872e-03 1.063397e-03 6.796563e-04 1.407944e-03 1.064171e-03 6.790713e-04 1.403860e-03 1.062228e-03
  13   8   2 6.794231e-04 1.395567e-03 1.063397e-03 6.796563e-04 1.396611e-03 1.064171e-03 6.790713e-04 1.392597e-03 1.062228e-03
  14   8   2 6.794231e-04 1.404077e-03 1.063397e-03 6.796563e-04 1.405164e-03 1.064171e-03 6.790713e-04 1.401120e-03 1.062228e-03
  15   8   2 6.794231e-04 1.392771e-03 1.140802e-03 6.796563e-04 1.393831e-03 1.141727e-03 6.790713e-04 1.389857e-03 1.139406e-03
  16   8   2 6.794231e-04 1.379993e-03 1.140802e-03 6.796563e-04 1.381022e-03 1.141727e-03 6.790713e-04 1.377126e-03 1.139406e-03
  17   8   2 6.127531e-04 1.364760e-03 1.143701e-03 6.129267e-04 1.365753e-03 1.144631e-03 6.124913e-04 1.361948e-03 1.142299e-03
  18   8   2 6.127531e-04 1.349527e-03 1.213166e-03 6.129267e-04 1.350483e-03 1.214202e-03 6.124913e-04 1.346770e-03 1.211604e-03
  19   8   2 6.127531e-04 1.360994e-03 1.213166e-03 6.129267e-04 1.362008e-03 1.214202e-03 6.124913e-04 1.358254e-03 1.211604e-03
  20   8   2 6.127531e-04 1.345761e-03 1.213477e-03 6.129267e-04 1.346739e-03 1.214235e-03 6.124913e-04 1.343076e-03 1.211376e-03
  21   8   2 6.127531e-04 1.328840e-03 1.213477e-03 6.129267e-04 1.329778e-03 1.214235e-03 6.124913e-04 1.326214e-03 1.211376e-03
  22   8   2 5.514280e-04 1.310231e-03 1.218807e-03 5.515552e-04 1.311126e-03 1.219577e-03 5.512362e-04 1.307669e-03 1.216689e-03
  23   8   2 5.514280e-04 1.324241e-03 1.240129e-03 5.515552e-04 1.325204e-03 1.240945e-03 5.512362e-04 1.321700e-03 1.237942e-03
  24   8   2 5.514280e-04 1.305632e-03 1.261451e-03 5.515552e-04 1.306552e-03 1.262312e-03 5.512362e-04 1.303155e-03 1.259196e-03
  25   8   2 5.514280e-04 1.287022e-03 1.245396e-03 5.515552e-04 1.287901e-03 1.246184e-03 5.512362e-04 1.284609e-03 1.243118e-03
  26   8   2 5.514280e-04 1.266718e-03 1.266718e-03 5.515552e-04 1.267552e-03 1.267552e-03 5.512362e-04 1.264372e-03 1.264372e-03
   1   9   2 9.046049e-04 1.449972e-03 9.046049e-04 9.049043e-04 1.451093e-03 9.049043e-04 9.033589e-04 1.446975e-03 9.033589e-04
   2   9   2 9.046049e-04 1.447620e-03 9.046049e-04 9.049043e-04 1.448737e-03 9.049043e-04 9.033589e-04 1.444638e-03 9.033589e-04
   3   9   2 8.263833e-04 1.445268e-03 9.046049e-04 8.266185e-04 1.446382e-03 9.049043e-04 8.254043e-04 1.442301e-03 9.033589e-04
   4   9   2 8.263833e-04 1.447047e-03 9.046049e-04 8.266185e-04 1.448161e-03 9.049043e-04 8.254043e-04 1.444058e-03 9.033589e-04
   5   9   2 8.263833e-04 1.444695e-03 9.842590e-04 8.266185e-04 1.445806e-03 9.846324e-04 8.254043e-04 1.441721e-03 9.827051e-04
   6   9   2 8.263833e-04 1.441766e-03 9.842590e-04 8.266185e-04 1.442873e-03 9.846324e-04 8.254043e-04 1.438811e-03 9.827051e-04
   7   9   2 8.263833e-04 1.434801e-03 9.842590e-04 8.266185e-04 1.435897e-03 9.846324e-04 8.254043e-04 1.431888e-03 9.827051e-04
   8   9   2 7.509837e-04 1.427835e-03 9.842590e-04 7.511651e-04 1.428921e-03 9.846324e-04 7.502292e-04 1.424965e-03 9.827051e-04
   9   9   2 7.509837e-04 1.433103e-03 9.842590e-04 7.511651e-04 1.434191e-03 9.846324e-04 7.502292e-04 1.430171e-03 9.827051e-04
  10   9   2 7.509837e-04 1.426138e-03 1.063715e-03 7.511651e-04 1.427215e-03 1.064171e-03 7.502292e-04 1.423248e-03 1.061818e-03
  11   9   2 7.509837e-04 1.418084e-03 1.063715e-03 7.511651e-04 1.419149e-03 1.064171e-03 7.502292e-04 1.415244e-03 1.061818e-03
  12   9   2 6.795190e-04 1.406768e-03 1.063715e-03 6.796563e-04 1.407816e-03 1.064171e-03 6.789479e-04 1.403996e-03 1.061818e-03
  13   9   2 6.795190e-04 1.395451e-03 1.063715e-03 6.796563e-04 1.396483e-03 1.064171e-03 6.789479e-04 1.392747e-03 1.061818e-03
  14   9   2 6.795190e-04 1.404010e-03 1.063715e-03 6.796563e-04 1.405044e-03 1.064171e-03 6.789479e-04 1.401206e-03 1.061818e-03
  15   9   2 6.795190e-04 1.392693e-03 1.141182e-03 6.796563e-04 1.393711e-03 1.141727e-03 6.789479e-04 1.389958e-03 1.138916e-03
  16   9   2 6.795190e-04 1.379902e-03 1.141182e-03 6.796563e-04 1.380902e-03 1.141727e-03 6.789479e-04 1.377243e-03 1.138916e-03
  17   9   2 6.128245e-04 1.364654e-03 1.144084e-03 6.129267e-04 1.365632e-03 1.144631e-03 6.123994e-04 1.362084e-03 1.141807e-03
  18   9   2 6.128245e-04 1.349406e-03 1.213592e-03 6.129267e-04 1.350363e-03 1.214202e-03 6.123994e-04 1.346925e-03 1.211056e-03
  19   9   2 6.128245e-04 1.360938e-03 1.213592e-03 6.129267e-04 1.361897e-03 1.214202e-03 6.123994e-04 1.358326e-03 1.211056e-03
  20   9   2 6.128245e-04 1.345690e-03 1.213415e-03 6.129267e-04 1.346628e-03 1.214148e-03 6.123994e-04 1.343168e-03 1.211456e-03
  21   9   2 6.128245e-04 1.328753e-03 1.213415e-03 6.129267e-04 1.329667e-03 1.214148e-03 6.123994e-04 1.326327e-03 1.211456e-03
  22   9   2 5.514804e-04 1.310126e-03 1.218750e-03 5.515552e-04 1.311016e-03 1.219490e-03 5.511688e-04 1.307804e-03 1.216763e-03
  23   9   2 5.514804e-04 1.324212e-03 1.240091e-03 5.515552e-04 1.325105e-03 1.240857e-03 5.511688e-04 1.321738e-03 1.237992e-03
  24   9   2 5.514804e-04 1.305585e-03 1.261431e-03 5.515552e-04 1.306453e-03 1.262225e-03 5.511688e-04 1.303215e-03 1.259222e-03
  25   9   2 5.514804e-04 1.286958e-03 1.245295e-03 5.515552e-04 1.287801e-03 1.246085e-03 5.511688e-04 1.284692e-03 1.243248e-03
  26   9   2 5.514804e-04 1.266635e-03 1.266635e-03 5.515552e-04 1.267452e-03 1.267452e-03 5.511688e-04 1.264478e-03 1.264478e-03
   1  10   2 9.046049e-04 1.450243e-03 9.046049e-04 9.049043e-04 1.450927e-03 9.049043e-04 9.033589e-04 1.446626e-03 9.033589e-04
   2  10   2 9.046049e-04 1.447891e-03 9.046049e-04 9.049043e-04 1.448572e-03 9.049043e-04 9.033589e-04 1.444289e-03 9.033589e-04
   3  10   2 8.263833e-04 1.445540e-03 9.046049e-04 8.266185e-04 1.446217e-03 9.049043e-04 8.254043e-04 1.441951e-03 9.033589e-04
   4  10   2 8.263833e-04 1.447315e-03 9.046049e-04 8.266185e-04 1.447998e-03 9.049043e-04 8.254043e-04 1.443713e-03 9.033589e-04
   5  10   2 8.263833e-04 1.444963e-03 9.842590e-04 8.266185e-04 1.445642e-03 9.846324e-04 8.254043e-04 1.441376e-03 9.827051e-04
   6  10   2 8.263833e-04 1.442035e-03 9.842590e-04 8.266185e-04 1.442709e-03 9.846324e-04 8.254043e-04 1.438465e-03 9.827051e-04
   7  10   2 8.263833e-04 1.435069e-03 9.842590e-04 8.266185e-04 1.435733e-03 9.846324e-04 8.254043e-04 1.431543e-03 9.827051e-04
   8  10   2 7.509837e-04 1.428103e-03 9.842590e-04 7.511651e-04 1.428757e-03 9.846324e-04 7.502292e-04 1.424620e-03 9.827051e-04
   9  10   2 7.509837e-04 1.433362e-03 9.842590e-04 7.511651e-04 1.434033e-03 9.846324e-04 7.502292e-04 1.429838e-03 9.827051e-04
  10  10   2 7.509837e-04 1.426397e-03 1.063715e-03 7.511651e-04 1.427057e-03 1.064171e-03 7.502292e-04 1.422915e-03 1.061818e-03
  11  10   2 7.509837e-04 1.418343e-03 1.063715e-03 7.511651e-04 1.418991e-03 1.064171e-03 7.502292e-04 1.414911e-03 1.061818e-03
  12  10   2 6.795190e-04 1.407026e-03 1.063715e-03 6.796563e-04 1.407658e-03 1.064171e-03 6.789479e-04 1.403662e-03 1.061818e-03
  13  10   2 6.795190e-04 1.395710e-03 1.063715e-03 6.796563e-04 1.396325e-03 1.064171e-03 6.789479e-04 1.392414e-03 1.061818e-03
  14  10   2 6.795190e-04 1.404254e-03 1.063715e-03 6.796563e-04 1.404895e-03 1.064171e-03 6.789479e-04 1.400892e-03 1.061818e-03
  15  10   2 6.795190e-04 1.392937e-03 1.141182e-03 6.796563e-04 1.393562e-03 1.141727e-03 6.789479e-04 1.389644e-03 1.138916e-03
  16  10   2 6.795190e-04 1.380146e-03 1.141182e-03 6.796563e-04 1.380753e-03 1.141727e-03 6.789479e-04 1.376929e-03 1.138916e-03
  17  10   2 6.128245e-04 1.364898e-03 1.144084e-03 6.129267e-04 1.365484e-03 1.144631e-03 6.123994e-04 1.361770e-03 1.141807e-03
  18  10   2 6.128245e-04 1.349650e-03 1.213592e-03 6.129267e-04 1.350214e-03 1.214202e-03 6.123994e-04 1.346611e-03 1.211056e-03
  19  10   2 6.128245e-04 1.361163e-03 1.213592e-03 6.129267e-04 1.361760e-03 1.214202e-03 6.123994e-04 1.358037e-03 1.211056e-03
  20  10   2 6.128245e-04 1.345915e-03 1.213592e-03 6.129267e-04 1.346491e-03 1.214040e-03 6.123994e-04 1.342879e-03 1.211227e-03
  21  10   2 6.128245e-04 1.328977e-03 1.213592e-03 6.129267e-04 1.329531e-03 1.214040e-03 6.123994e-04 1.326038e-03 1.211227e-03
  22  10   2 5.514804e-04 1.310351e-03 1.218928e-03 5.515552e-04 1.310879e-03 1.219381e-03 5.511688e-04 1.307515e-03 1.216535e-03
  23  10   2 5.514804e-04 1.324414e-03 1.240268e-03 5.515552e-04 1.324982e-03 1.240749e-03 5.511688e-04 1.321478e-03 1.237764e-03
  24  10   2 5.514804e-04 1.305787e-03 1.261609e-03 5.515552e-04 1.306330e-03 1.262116e-03 5.511688e-04 1.302955e-03 1.258993e-03
  25  10   2 5.514804e-04 1.287160e-03 1.245497e-03 5.515552e-04 1.287678e-03 1.245962e-03 5.511688e-04 1.284432e-03 1.242989e-03
  26  10   2 5.514804e-04 1.266837e-03 1.266837e-03 5.515552e-04 1.267329e-03 1.267329e-03 5.511688e-04 1.264218e-03 1.264218e-03
   1  11   2 9.046049e-04 1.450466e-03 9.046049e-04 9.047767e-04 1.450985e-03 9.047767e-04 9.033589e-04 1.446280e-03 9.033589e-04
   2  11   2 9.046049e-04 1.448114e-03 9.046049e-04 9.047767e-04 1.448631e-03 9.047767e-04 9.033589e-04 1.443943e-03 9.033589e-04
   3  11   2 8.263833e-04 1.445762e-03 9.046049e-04 8.265182e-04 1.446277e-03 9.047767e-04 8.254043e-04 1.441605e-03 9.033589e-04
   4  11   2 8.263833e-04 1.447535e-03 9.046049e-04 8.265182e-04 1.448052e-03 9.047767e-04 8.254043e-04 1.443371e-03 9.033589e-04
   5  11   2 8.263833e-04 1.445184e-03 9.842590e-04 8.265182e-04 1.445698e-03 9.844732e-04 8.254043e-04 1.441034e-03 9.827051e-04
   6  11   2 8.263833e-04 1.442255e-03 9.842590e-04 8.265182e-04 1.442767e-03 9.844732e-04 8.254043e-04 1.438123e-03 9.827051e-04
   7  11   2 8.263833e-04 1.435289e-03 9.842590e-04 8.265182e-04 1.435796e-03 9.844732e-04 8.254043e-04 1.431201e-03 9.827051e-04
   8  11   2 7.509837e-04 1.428323e-03 9.842590e-04 7.510878e-04 1.428824e-03 9.844732e-04 7.502292e-04 1.424278e-03 9.827051e-04
   9  11   2 7.509837e-04 1.433575e-03 9.842590e-04 7.510878e-04 1.434080e-03 9.844732e-04 7.502292e-04 1.429507e-03 9.827051e-04
  10  11   2 7.509837e-04 1.426609e-03 1.063715e-03 7.510878e-04 1.427109e-03 1.063977e-03 7.502292e-04 1.422585e-03 1.061818e-03
  11  11   2 7.509837e-04 1.418556e-03 1.063715e-03 7.510878e-04 1.419048e-03 1.063977e-03 7.502292e-04 1.414581e-03 1.061818e-03
  12  11   2 6.795190e-04 1.407239e-03 1.063715e-03 6.795978e-04 1.407722e-03 1.063977e-03 6.789479e-04 1.403332e-03 1.061818e-03
  13  11   2 6.795190e-04 1.395922e-03 1.063715e-03 6.795978e-04 1.396396e-03 1.063977e-03 6.789479e-04 1.392084e-03 1.061818e-03
  14  11   2 6.795190e-04 1.404454e-03 1.063715e-03 6.795978e-04 1.404936e-03 1.063977e-03 6.789479e-04 1.400581e-03 1.061818e-03
  15  11   2 6.795190e-04 1.393138e-03 1.141182e-03 6.795978e-04 1.393610e-03 1.141495e-03 6.789479e-04 1.389333e-03 1.138916e-03
  16  11   2 6.795190e-04 1.380347e-03 1.141182e-03 6.795978e-04 1.380808e-03 1.141495e-03 6.789479e-04 1.376618e-03 1.138916e-03
  17  11   2 6.128245e-04 1.365099e-03 1.144084e-03 6.128831e-04 1.365548e-03 1.144397e-03 6.123994e-04 1.361459e-03 1.141807e-03
  18  11   2 6.128245e-04 1.349851e-03 1.213592e-03 6.128831e-04 1.350288e-03 1.213942e-03 6.123994e-04 1.346300e-03 1.211056e-03
  19  11   2 6.128245e-04 1.361347e-03 1.213592e-03 6.128831e-04 1.361795e-03 1.213942e-03 6.123994e-04 1.357751e-03 1.211056e-03
  20  11   2 6.128245e-04 1.346099e-03 1.213738e-03 6.128831e-04 1.346534e-03 1.214078e-03 6.123994e-04 1.342592e-03 1.211001e-03
  21  11   2 6.128245e-04 1.329162e-03 1.213738e-03 6.128831e-04 1.329584e-03 1.214078e-03 6.123994e-04 1.325752e-03 1.211001e-03
  22  11   2 5.514804e-04 1.310535e-03 1.219073e-03 5.515233e-04 1.310943e-03 1.219417e-03 5.511688e-04 1.307229e-03 1.216308e-03
  23  11   2 5.514804e-04 1.324579e-03 1.240414e-03 5.515233e-04 1.324999e-03 1.240773e-03 5.511688e-04 1.321221e-03 1.237538e-03
  24  11   2 5.514804e-04 1.305953e-03 1.261755e-03 5.515233e-04 1.306358e-03 1.262129e-03 5.511688e-04 1.302698e-03 1.258767e-03
  25  11   2 5.514804e-04 1.287326e-03 1.245662e-03 5.515233e-04 1.287717e-03 1.246023e-03 5.511688e-04 1.284175e-03 1.242731e-03
  26  11   2 5.514804e-04 1.267003e-03 1.267003e-03 5.515233e-04 1.267379e-03 1.267379e-03 5.511688e-04 1.263960e-03 1.263960e-03
   1  12   2 9.047767e-04 1.450388e-03 9.047767e-04 9.047767e-04 1.450820e-03 9.047767e-04 9.033589e-04 1.445944e-03 9.033589e-04
   2  12   2 9.047767e-04 1.448034e-03 9.047767e-04 9.047767e-04 1.448466e-03 9.047767e-04 9.033589e-04 1.443607e-03 9.033589e-04
   3  12   2 8.265182e-04 1.445680e-03 9.047767e-04 8.265182e-04 1.446112e-03 9.047767e-04 8.254043e-04 1.441269e-03 9.033589e-04
   4  12   2 8.265182e-04 1.447462e-03 9.047767e-04 8.265182e-04 1.447888e-03 9.047767e-04 8.254043e-04 1.443039e-03 9.033589e-04
   5  12   2 8.265182e-04 1.445108e-03 9.844732e-04 8.265182e-04 1.445535e-03 9.844732e-04 8.254043e-04 1.440702e-03 9.827051e-04
   6  12   2 8.265182e-04 1.442177e-03 9.844732e-04 8.265182e-04 1.442604e-03 9.844732e-04 8.254043e-04 1.437791e-03 9.827051e-04
   7  12   2 8.265182e-04 1.435206e-03 9.844732e-04 8.265182e-04 1.435632e-03 9.844732e-04 8.254043e-04 1.430869e-03 9.827051e-04
   8  12   2 7.510878e-04 1.428234e-03 9.844732e-04 7.510878e-04 1.428660e-03 9.844732e-04 7.502292e-04 1.423946e-03 9.827051e-04
   9  12   2 7.510878e-04 1.433511e-03 9.844732e-04 7.510878e-04 1.433922e-03 9.844732e-04 7.502292e-04 1.429187e-03 9.827051e-04
  10  12   2 7.510878e-04 1.426539e-03 1.063977e-03 7.510878e-04 1.426951e-03 1.063977e-03 7.502292e-04 1.422264e-03 1.061818e-03
  11  12   2 7.510878e-04 1.418479e-03 1.063977e-03 7.510878e-04 1.418890e-03 1.063977e-03 7.502292e-04 1.414260e-03 1.061818e-03
  12  12   2 6.795978e-04 1.407153e-03 1.063977e-03 6.795978e-04 1.407564e-03 1.063977e-03 6.789479e-04 1.403012e-03 1.061818e-03
  13  12   2 6.795978e-04 1.395827e-03 1.063977e-03 6.795978e-04 1.396238e-03 1.063977e-03 6.789479e-04 1.391764e-03 1.061818e-03
  14  12   2 6.795978e-04 1.404399e-03 1.063977e-03 6.795978e-04 1.404787e-03 1.063977e-03 6.789479e-04 1.400279e-03 1.061818e-03
  15  12   2 6.795978e-04 1.393073e-03 1.141495e-03 6.795978e-04 1.393461e-03 1.141495e-03 6.789479e-04 1.389031e-03 1.138916e-03
  16  12   2 6.795978e-04 1.380272e-03 1.141495e-03 6.795978e-04 1.380660e-03 1.141495e-03 6.789479e-04 1.376316e-03 1.138916e-03
  17  12   2 6.128831e-04 1.365012e-03 1.144397e-03 6.128831e-04 1.365399e-03 1.144397e-03 6.123994e-04 1.361157e-03 1.141807e-03
  18  12   2 6.128831e-04 1.349751e-03 1.213942e-03 6.128831e-04 1.350139e-03 1.213942e-03 6.123994e-04 1.345998e-03 1.211056e-03
  19  12   2 6.128831e-04 1.361301e-03 1.213942e-03 6.128831e-04 1.361658e-03 1.213942e-03 6.123994e-04 1.357473e-03 1.211056e-03
  20  12   2 6.128831e-04 1.346041e-03 1.213687e-03 6.128831e-04 1.346397e-03 1.213969e-03 6.123994e-04 1.342315e-03 1.210781e-03
  21  12   2 6.128831e-04 1.329090e-03 1.213687e-03 6.128831e-04 1.329447e-03 1.213969e-03 6.123994e-04 1.325474e-03 1.210781e-03
  22  12   2 5.515233e-04 1.310449e-03 1.219026e-03 5.515233e-04 1.310806e-03 1.219308e-03 5.511688e-04 1.306951e-03 1.216089e-03
  23  12   2 5.515233e-04 1.324556e-03 1.240382e-03 5.515233e-04 1.324876e-03 1.240664e-03 5.511688e-04 1.320971e-03 1.237318e-03
  24  12   2 5.515233e-04 1.305914e-03 1.261738e-03 5.515233e-04 1.306235e-03 1.262020e-03 5.511688e-04 1.302448e-03 1.258547e-03
  25  12   2 5.515233e-04 1.287273e-03 1.245579e-03 5.515233e-04 1.287594e-03 1.245900e-03 5.511688e-04 1.283925e-03 1.242481e-03
  26  12   2 5.515233e-04 1.266935e-03 1.266935e-03 5.515233e-04 1.267256e-03 1.267256e-03 5.511688e-04 1.263711e-03 1.263711e-03
   1  13   2 9.047767e-04 1.450611e-03 9.047767e-04 9.047767e-04 1.450611e-03 9.047767e-04 9.030999e-04 1.446061e-03 9.030999e-04
   2  13   2 9.047767e-04 1.448257e-03 9.047767e-04 9.047767e-04 1.448257e-03 9.047767e-04 9.030999e-04 1.443727e-03 9.030999e-04
   3  13   2 8.265182e-04 1.445903e-03 9.047767e-04 8.265182e-04 1.445903e-03 9.047767e-04 8.252008e-04 1.441393e-03 9.030999e-04
   4  13   2 8.265182e-04 1.447682e-03 9.047767e-04 8.265182e-04 1.447682e-03 9.047767e-04 8.252008e-04 1.443149e-03 9.030999e-04
   5  13   2 8.265182e-04 1.445329e-03 9.844732e-04 8.265182e-04 1.445329e-03 9.844732e-04 8.252008e-04 1.440815e-03 9.823820e-04
   6  13   2 8.265182e-04 1.442397e-03 9.844732e-04 8.265182e-04 1.442397e-03 9.844732e-04 8.252008e-04 1.437909e-03 9.823820e-04
   7  13   2 8.265182e-04 1.435426e-03 9.844732e-04 8.265182e-04 1.435426e-03 9.844732e-04 8.252008e-04 1.430995e-03 9.823820e-04
   8  13   2 7.510878e-04 1.428454e-03 9.844732e-04 7.510878e-04 1.428454e-03 9.844732e-04 7.500723e-04 1.424081e-03 9.823820e-04
   9  13   2 7.510878e-04 1.433723e-03 9.844732e-04 7.510878e-04 1.433723e-03 9.844732e-04 7.500723e-04 1.429284e-03 9.823820e-04
  10  13   2 7.510878e-04 1.426752e-03 1.063977e-03 7.510878e-04 1.426752e-03 1.063977e-03 7.500723e-04 1.422370e-03 1.061424e-03
  11  13   2 7.510878e-04 1.418691e-03 1.063977e-03 7.510878e-04 1.418691e-03 1.063977e-03 7.500723e-04 1.414376e-03 1.061424e-03
  12  13   2 6.795978e-04 1.407365e-03 1.063977e-03 6.795978e-04 1.407365e-03 1.063977e-03 6.788291e-04 1.403142e-03 1.061424e-03
  13  13   2 6.795978e-04 1.396039e-03 1.063977e-03 6.795978e-04 1.396039e-03 1.063977e-03 6.788291e-04 1.391908e-03 1.061424e-03
  14  13   2 6.795978e-04 1.404600e-03 1.063977e-03 6.795978e-04 1.404600e-03 1.063977e-03 6.788291e-04 1.400362e-03 1.061424e-03
  15  13   2 6.795978e-04 1.393274e-03 1.141495e-03 6.795978e-04 1.393274e-03 1.141495e-03 6.788291e-04 1.389128e-03 1.138445e-03
  16  13   2 6.795978e-04 1.380472e-03 1.141495e-03 6.795978e-04 1.380472e-03 1.141495e-03 6.788291e-04 1.376429e-03 1.138445e-03
  17  13   2 6.128831e-04 1.365212e-03 1.144397e-03 6.128831e-04 1.365212e-03 1.144397e-03 6.123110e-04 1.361288e-03 1.141333e-03
  18  13   2 6.128831e-04 1.349952e-03 1.213942e-03 6.128831e-04 1.349952e-03 1.213942e-03 6.123110e-04 1.346148e-03 1.210529e-03
  19  13   2 6.128831e-04 1.361485e-03 1.213942e-03 6.128831e-04 1.361485e-03 1.213942e-03 6.123110e-04 1.357543e-03 1.210529e-03
  20  13   2 6.128831e-04 1.346225e-03 1.213833e-03 6.128831e-04 1.346225e-03 1.213833e-03 6.123110e-04 1.342403e-03 1.210858e-03
  21  13   2 6.128831e-04 1.329274e-03 1.213833e-03 6.128831e-04 1.329274e-03 1.213833e-03 6.123110e-04 1.325582e-03 1.210858e-03
  22  13   2 5.515233e-04 1.310633e-03 1.219172e-03 5.515233e-04 1.310633e-03 1.219172e-03 5.511040e-04 1.307081e-03 1.216160e-03
  23  13   2 5.515233e-04 1.324721e-03 1.240528e-03 5.515233e-04 1.324721e-03 1.240528e-03 5.511040e-04 1.321007e-03 1.237366e-03
  24  13   2 5.515233e-04 1.306080e-03 1.261884e-03 5.515233e-04 1.306080e-03 1.261884e-03 5.511040e-04 1.302506e-03 1.258572e-03
  25  13   2 5.515233e-04 1.287439e-03 1.245745e-03 5.515233e-04 1.287439e-03 1.245745e-03 5.511040e-04 1.284004e-03 1.242607e-03
  26  13   2 5.515233e-04 1.267101e-03 1.267101e-03 5.515233e-04 1.267101e-03 1.267101e-03 5.511040e-04 1.263813e-03 1.263813e-03
   1   1   3 1.745389e-03 2.899894e-03 1.745389e-03 1.747272e-03 2.905835e-03 1.747272e-03 1.745389e-03 2.899894e-03 1.745389e-03
   2   1   3 1.695309e-03 2.897548e-03 1.795470e-03 1.697074e-03 2.903478e-03 1.797470e-03 1.695309e-03 2.897548e-03 1.795470e-03
   3   1   3 1.733189e-03 2.895201e-03 1.846232e-03 1.734974e-03 2.901122e-03 1.848362e-03 1.733189e-03 2.895201e-03 1.846232e-03
   4   1   3 1.683108e-03 2.889607e-03 1.897221e-03 1.684776e-03 2.895496e-03 1.899487e-03 1.683108e-03 2.889607e-03 1.897221e-03
   5   1   3 1.633702e-03 2.887260e-03 1.858644e-03 1.635260e-03 2.893139e-03 1.860888e-03 1.633702e-03 2.887260e-03 1.858644e-03
   6   1   3 1.585421e-03 2.884338e-03 1.909633e-03 1.586880e-03 2.890205e-03 1.912012e-03 1.585421e-03 2.884338e-03 1.909633e-03
   7   1   3 1.537140e-03 2.877388e-03 1.960623e-03 1.538500e-03 2.883225e-03 1.963137e-03 1.537140e-03 2.877388e-03 1.960623e-03
   8   1   3 1.573651e-03 2.870438e-03 2.011494e-03 1.575027e-03 2.876245e-03 2.014157e-03 1.573651e-03 2.870438e-03 2.011494e-03
   9   1   3 1.525369e-03 2.853868e-03 2.062348e-03 1.526647e-03 2.859584e-03 2.065162e-03 1.525369e-03 2.853868e-03 2.062348e-03
  10   1   3 1.478344e-03 2.846918e-03 2.023864e-03 1.479533e-03 2.852604e-03 2.026653e-03 1.478344e-03 2.846918e-03 2.023864e-03
  11   1   3 1.432576e-03 2.838882e-03 2.074719e-03 1.433684e-03 2.844535e-03 2.077658e-03 1.432576e-03 2.838882e-03 2.074719e-03
  12   1   3 1.467179e-03 2.827590e-03 2.125573e-03 1.468300e-03 2.833196e-03 2.128663e-03 1.467179e-03 2.827590e-03 2.125573e-03
  13   1   3 1.421410e-03 2.816298e-03 2.175146e-03 1.422451e-03 2.821857e-03 2.178398e-03 1.421410e-03 2.816298e-03 2.175146e-03
  14   1   3 1.375642e-03 2.789382e-03 2.224720e-03 1.376602e-03 2.794794e-03 2.228134e-03 1.375642e-03 2.789382e-03 2.224720e-03
  15   1   3 1.331779e-03 2.778090e-03 2.187196e-03 1.332669e-03 2.783455e-03 2.190584e-03 1.331779e-03 2.778090e-03 2.187196e-03
  16   1   3 1.289060e-03 2.765326e-03 2.236769e-03 1.289886e-03 2.770640e-03 2.240319e-03 1.289060e-03 2.765326e-03 2.236769e-03
  17   1   3 1.321351e-03 2.750110e-03 2.283043e-03 1.322187e-03 2.755363e-03 2.286741e-03 1.321351e-03 2.750110e-03 2.283043e-03
  18   1   3 1.278632e-03 2.734894e-03 2.306220e-03 1.279404e-03 2.740086e-03 2.309978e-03 1.278632e-03 2.734894e-03 2.306220e-03
  19   1   3 1.235913e-03 2.698631e-03 2.296437e-03 1.236621e-03 2.703632e-03 2.299838e-03 1.235913e-03 2.698631e-03 2.296437e-03
  20   1   3 1.195760e-03 2.683415e-03 2.343599e-03 1.196415e-03 2.688355e-03 2.347173e-03 1.195760e-03 2.683415e-03 2.343599e-03
  21   1   3 1.156463e-03 2.666513e-03 2.390762e-03 1.157068e-03 2.671386e-03 2.394508e-03 1.156463e-03 2.666513e-03 2.390762e-03
  22   1   3 1.186162e-03 2.647923e-03 2.431459e-03 1.186775e-03 2.652726e-03 2.435353e-03 1.186162e-03 2.647923e-03 2.431459e-03
  23   1   3 1.146865e-03 2.603624e-03 2.452760e-03 1.147428e-03 2.608204e-03 2.456730e-03 1.146865e-03 2.603624e-03 2.452760e-03
  24   1   3 1.107568e-03 2.585035e-03 2.474061e-03 1.108081e-03 2.589543e-03 2.478107e-03 1.107568e-03 2.585035e-03 2.474061e-03
  25   1   3 1.071468e-03 2.566445e-03 2.524861e-03 1.071942e-03 2.570883e-03 2.529148e-03 1.071468e-03 2.566445e-03 2.524861e-03
  26   1   3 1.035825e-03 2.546161e-03 2.546161e-03 1.036261e-03 2.550524e-03 2.550524e-03 1.035825e-03 2.546161e-03 2.546161e-03
   1   2   3 1.745605e-03 2.900231e-03 1.745605e-03 1.747250e-03 2.905801e-03 1.747250e-03 1.745509e-03 2.899167e-03 1.745509e-03
   2   2   3 1.695524e-03 2.897884e-03 1.795686e-03 1.697052e-03 2.903444e-03 1.797447e-03 1.695464e-03 2.896824e-03 1.795554e-03
   3   2   3 1.733358e-03 2.895537e-03 1.846448e-03 1.734956e-03 2.901087e-03 1.848340e-03 1.733190e-03 2.894480e-03 1.846277e-03
   4   2   3 1.683278e-03 2.889939e-03 1.897437e-03 1.684758e-03 2.895462e-03 1.899465e-03 1.683145e-03 2.888883e-03 1.897225e-03
   5   2   3 1.633872e-03 2.887592e-03 1.858913e-03 1.635243e-03 2.893105e-03 1.860860e-03 1.633773e-03 2.886539e-03 1.858826e-03
   6   2   3 1.585591e-03 2.884670e-03 1.909903e-03 1.586863e-03 2.890171e-03 1.911985e-03 1.585522e-03 2.883621e-03 1.909774e-03
   7   2   3 1.537310e-03 2.877720e-03 1.960892e-03 1.538483e-03 2.883191e-03 1.963109e-03 1.537270e-03 2.876680e-03 1.960722e-03
   8   2   3 1.573781e-03 2.870770e-03 2.011763e-03 1.575014e-03 2.876211e-03 2.014129e-03 1.573651e-03 2.869738e-03 2.011548e-03
   9   2   3 1.525500e-03 2.854189e-03 2.062618e-03 1.526634e-03 2.859551e-03 2.065134e-03 1.525400e-03 2.853160e-03 2.062357e-03
  10   2   3 1.478475e-03 2.847239e-03 2.024193e-03 1.479520e-03 2.852571e-03 2.026619e-03 1.478402e-03 2.846218e-03 2.024071e-03
  11   2   3 1.432707e-03 2.839203e-03 2.075047e-03 1.433671e-03 2.844502e-03 2.077625e-03 1.432658e-03 2.838193e-03 2.074879e-03
  12   2   3 1.467278e-03 2.827911e-03 2.125902e-03 1.468290e-03 2.833163e-03 2.128630e-03 1.467155e-03 2.826915e-03 2.125688e-03
  13   2   3 1.421509e-03 2.816619e-03 2.175475e-03 1.422441e-03 2.821824e-03 2.178365e-03 1.421411e-03 2.815637e-03 2.175212e-03
  14   2   3 1.375741e-03 2.789684e-03 2.225048e-03 1.376592e-03 2.794763e-03 2.228100e-03 1.375667e-03 2.788706e-03 2.224736e-03
  15   2   3 1.331878e-03 2.778392e-03 2.187589e-03 1.332659e-03 2.783424e-03 2.190543e-03 1.331826e-03 2.777428e-03 2.187426e-03
  16   2   3 1.289159e-03 2.765628e-03 2.237162e-03 1.289876e-03 2.770609e-03 2.240278e-03 1.289126e-03 2.764680e-03 2.236950e-03
  17   2   3 1.321425e-03 2.750412e-03 2.283436e-03 1.322180e-03 2.755332e-03 2.286701e-03 1.321333e-03 2.749483e-03 2.283178e-03
  18   2   3 1.278705e-03 2.735196e-03 2.306613e-03 1.279397e-03 2.740055e-03 2.309938e-03 1.278633e-03 2.734285e-03 2.306337e-03
  19   2   3 1.235986e-03 2.698909e-03 2.296656e-03 1.236613e-03 2.703603e-03 2.299816e-03 1.235933e-03 2.698003e-03 2.296108e-03
  20   2   3 1.195834e-03 2.683693e-03 2.343819e-03 1.196407e-03 2.688326e-03 2.347150e-03 1.195797e-03 2.682806e-03 2.343218e-03
  21   2   3 1.156537e-03 2.666791e-03 2.390982e-03 1.157061e-03 2.671358e-03 2.394485e-03 1.156515e-03 2.665923e-03 2.390329e-03
  22   2   3 1.186216e-03 2.648201e-03 2.431679e-03 1.186769e-03 2.652697e-03 2.435331e-03 1.186149e-03 2.647355e-03 2.430981e-03
  23   2   3 1.146919e-03 2.603874e-03 2.452980e-03 1.147423e-03 2.608178e-03 2.456707e-03 1.146867e-03 2.603034e-03 2.452258e-03
  24   2   3 1.107622e-03 2.585284e-03 2.474280e-03 1.108076e-03 2.589518e-03 2.478084e-03 1.107585e-03 2.584466e-03 2.473536e-03
  25   2   3 1.071522e-03 2.566695e-03 2.525111e-03 1.071937e-03 2.570857e-03 2.529122e-03 1.071497e-03 2.565898e-03 2.524360e-03
  26   2   3 1.035879e-03 2.546411e-03 2.546411e-03 1.036255e-03 2.550499e-03 2.550499e-03 1.035865e-03 2.545637e-03 2.545637e-03
   1   3   3 1.745812e-03 2.900554e-03 1.745812e-03 1.747262e-03 2.905726e-03 1.747262e-03 1.745293e-03 2.898831e-03 1.745293e-03
   2   3   3 1.695732e-03 2.898207e-03 1.795893e-03 1.697068e-03 2.903370e-03 1.797456e-03 1.695248e-03 2.896488e-03 1.795338e-03
   3   3   3 1.733521e-03 2.895860e-03 1.846655e-03 1.734956e-03 2.901013e-03 1.848345e-03 1.733021e-03 2.894144e-03 1.846061e-03
   4   3   3 1.683441e-03 2.890258e-03 1.897644e-03 1.684762e-03 2.895388e-03 1.899465e-03 1.682976e-03 2.888551e-03 1.897009e-03
   5   3   3 1.634035e-03 2.887912e-03 1.859172e-03 1.635250e-03 2.893031e-03 1.860879e-03 1.633603e-03 2.886207e-03 1.858556e-03
   6   3   3 1.585754e-03 2.884990e-03 1.910161e-03 1.586873e-03 2.890097e-03 1.911999e-03 1.585352e-03 2.883289e-03 1.909505e-03
   7   3   3 1.537472e-03 2.878039e-03 1.961151e-03 1.538496e-03 2.883118e-03 1.963119e-03 1.537101e-03 2.876347e-03 1.960453e-03
   8   3   3 1.573907e-03 2.871089e-03 2.012022e-03 1.575014e-03 2.876140e-03 2.014135e-03 1.573521e-03 2.869406e-03 2.011279e-03
   9   3   3 1.525626e-03 2.854497e-03 2.062876e-03 1.526637e-03 2.859478e-03 2.065135e-03 1.525269e-03 2.852839e-03 2.062088e-03
  10   3   3 1.478601e-03 2.847546e-03 2.024509e-03 1.479526e-03 2.852500e-03 2.026641e-03 1.478272e-03 2.845898e-03 2.023742e-03
  11   3   3 1.432832e-03 2.839511e-03 2.075363e-03 1.433679e-03 2.844431e-03 2.077641e-03 1.432528e-03 2.837872e-03 2.074551e-03
  12   3   3 1.467373e-03 2.828219e-03 2.126218e-03 1.468288e-03 2.833094e-03 2.128641e-03 1.467056e-03 2.826594e-03 2.125359e-03
  13   3   3 1.421604e-03 2.816927e-03 2.175791e-03 1.422441e-03 2.821756e-03 2.178372e-03 1.421312e-03 2.815316e-03 2.174883e-03
  14   3   3 1.375836e-03 2.789974e-03 2.225364e-03 1.376595e-03 2.794694e-03 2.228102e-03 1.375568e-03 2.788404e-03 2.224408e-03
  15   3   3 1.331973e-03 2.778682e-03 2.187966e-03 1.332664e-03 2.783356e-03 2.190567e-03 1.331727e-03 2.777126e-03 2.187033e-03
  16   3   3 1.289254e-03 2.765918e-03 2.237539e-03 1.289883e-03 2.770542e-03 2.240297e-03 1.289027e-03 2.764378e-03 2.236557e-03
  17   3   3 1.321495e-03 2.750703e-03 2.283813e-03 1.322178e-03 2.755267e-03 2.286715e-03 1.321259e-03 2.749181e-03 2.282785e-03
  18   3   3 1.278776e-03 2.735487e-03 2.306990e-03 1.279397e-03 2.739992e-03 2.309950e-03 1.278560e-03 2.733983e-03 2.305945e-03
  19   3   3 1.236057e-03 2.699176e-03 2.296868e-03 1.236616e-03 2.703539e-03 2.299782e-03 1.235860e-03 2.697725e-03 2.295888e-03
  20   3   3 1.195904e-03 2.683960e-03 2.344030e-03 1.196411e-03 2.688264e-03 2.347111e-03 1.195724e-03 2.682528e-03 2.342998e-03
  21   3   3 1.156607e-03 2.667058e-03 2.391193e-03 1.157066e-03 2.671297e-03 2.394441e-03 1.156442e-03 2.665645e-03 2.390109e-03
  22   3   3 1.186268e-03 2.648468e-03 2.431890e-03 1.186768e-03 2.652639e-03 2.435281e-03 1.186095e-03 2.647077e-03 2.430761e-03
  23   3   3 1.146971e-03 2.604114e-03 2.453191e-03 1.147423e-03 2.608118e-03 2.456656e-03 1.146813e-03 2.602784e-03 2.452039e-03
  24   3   3 1.107674e-03 2.585525e-03 2.474491e-03 1.108078e-03 2.589459e-03 2.478030e-03 1.107531e-03 2.584216e-03 2.473316e-03
  25   3   3 1.071574e-03 2.566935e-03 2.525351e-03 1.071940e-03 2.570801e-03 2.529071e-03 1.071443e-03 2.565648e-03 2.524110e-03
  26   3   3 1.035931e-03 2.546651e-03 2.546651e-03 1.036260e-03 2.550445e-03 2.550445e-03 1.035811e-03 2.545387e-03 2.545387e-03
   1   4   3 1.746011e-03 2.900863e-03 1.746011e-03 1.747240e-03 2.905692e-03 1.747240e-03 1.745071e-03 2.898485e-03 1.745071e-03
   2   4   3 1.695931e-03 2.898517e-03 1.796092e-03 1.697046e-03 2.903335e-03 1.797434e-03 1.695026e-03 2.896142e-03 1.795116e-03
   3   4   3 1.733678e-03 2.896170e-03 1.846854e-03 1.734939e-03 2.900979e-03 1.848323e-03 1.732846e-03 2.893798e-03 1.845838e-03
   4   4   3 1.683597e-03 2.890564e-03 1.897843e-03 1.684745e-03 2.895354e-03 1.899443e-03 1.682801e-03 2.888208e-03 1.896787e-03
   5   4   3 1.634191e-03 2.888218e-03 1.859420e-03 1.635232e-03 2.892997e-03 1.860851e-03 1.633429e-03 2.885865e-03 1.858279e-03
   6   4   3 1.585910e-03 2.885296e-03 1.910410e-03 1.586856e-03 2.890063e-03 1.911971e-03 1.585177e-03 2.882947e-03 1.909227e-03
   7   4   3 1.537629e-03 2.878345e-03 1.961399e-03 1.538479e-03 2.883084e-03 1.963092e-03 1.536926e-03 2.876005e-03 1.960176e-03
   8   4   3 1.574027e-03 2.871395e-03 2.012270e-03 1.575000e-03 2.876106e-03 2.014107e-03 1.573386e-03 2.869064e-03 2.011002e-03
   9   4   3 1.525746e-03 2.854792e-03 2.063125e-03 1.526624e-03 2.859445e-03 2.065108e-03 1.525135e-03 2.852509e-03 2.061810e-03
  10   4   3 1.478721e-03 2.847842e-03 2.024812e-03 1.479512e-03 2.852467e-03 2.026607e-03 1.478137e-03 2.845568e-03 2.023403e-03
  11   4   3 1.432953e-03 2.839806e-03 2.075666e-03 1.433666e-03 2.844398e-03 2.077607e-03 1.432393e-03 2.837542e-03 2.074212e-03
  12   4   3 1.467464e-03 2.828514e-03 2.126521e-03 1.468277e-03 2.833061e-03 2.128608e-03 1.466954e-03 2.826264e-03 2.125021e-03
  13   4   3 1.421696e-03 2.817222e-03 2.176094e-03 1.422431e-03 2.821723e-03 2.178338e-03 1.421210e-03 2.814986e-03 2.174545e-03
  14   4   3 1.375927e-03 2.790252e-03 2.225667e-03 1.376585e-03 2.794663e-03 2.228068e-03 1.375466e-03 2.788093e-03 2.224069e-03
  15   4   3 1.332065e-03 2.778960e-03 2.188328e-03 1.332654e-03 2.783325e-03 2.190527e-03 1.331625e-03 2.776815e-03 2.186628e-03
